{
  "version": "1.0",
  "truncation": null,
  "padding": null,
  "added_tokens": [
    {
      "id": 0,
      "content": "[UNK]",
      "single_word": false,
      "lstrip": false,
      "rstrip": false,
      "normalized": false,
      "special": true
    }
  ],
  "normalizer": {
    "type": "BertNormalizer",
    "clean_text": true,
    "handle_chinese_chars": true,
    "strip_accents": null,
    "lowercase": true
  },
  "pre_tokenizer": {
    "type": "Split",
    "pattern": {
      "Regex": "::|,|\\(|\\)|\\n"
    },
    "behavior": "Isolated",
    "invert": false
  },
  "post_processor": null,
  "decoder": null,
  "model": {
    "type": "BPE",
    "dropout": null,
    "unk_token": "[UNK]",
    "continuing_subword_prefix": null,
    "end_of_word_suffix": null,
    "fuse_unk": false,
    "byte_fallback": false,
    "ignore_merges": false,
    "vocab": {
      "[UNK]": 0,
      " ": 1,
      "#": 2,
      "(": 3,
      ")": 4,
      "+": 5,
      "0": 6,
      "1": 7,
      "2": 8,
      "3": 9,
      "4": 10,
      "5": 11,
      "8": 12,
      ":": 13,
      "<": 14,
      ">": 15,
      "[": 16,
      "]": 17,
      "_": 18,
      "a": 19,
      "b": 20,
      "c": 21,
      "d": 22,
      "e": 23,
      "f": 24,
      "g": 25,
      "h": 26,
      "i": 27,
      "k": 28,
      "l": 29,
      "m": 30,
      "n": 31,
      "o": 32,
      "p": 33,
      "q": 34,
      "r": 35,
      "s": 36,
      "t": 37,
      "u": 38,
      "v": 39,
      "w": 40,
      "x": 41,
      "y": 42,
      "z": 43,
      "{": 44,
      "}": 45,
      "::": 46,
      "te": 47,
      "in": 48,
      "st": 49,
      "  ": 50,
      "al": 51,
      "test": 52,
      "nal": 53,
      "ag": 54,
      "ter": 55,
      "inter": 56,
      "internal": 57,
      "<>": 58,
      "ing": 59,
      "fl": 60,
      "s_": 61,
      "flag": 62,
      "testing": 63,
      "all": 64,
      "sl": 65,
      "ab": 66,
      "on": 67,
      "or": 68,
      "lt": 69,
      "absl": 70,
      "pl": 71,
      "mpl": 72,
      "impl": 73,
      "02": 74,
      "08": 75,
      "14": 76,
      "202": 77,
      "508": 78,
      "s_202": 79,
      "lts_202": 80,
      "50814": 81,
      "lts_20250814": 82,
      "oc": 83,
      "alloc": 84,
      "un": 85,
      "at": 86,
      "std": 87,
      "an": 88,
      "ce": 89,
      "ion": 90,
      "er": 91,
      "s_internal": 92,
      "flags_internal": 93,
      "me": 94,
      "__": 95,
      "ions": 96,
      "str": 97,
      "ar": 98,
      "le": 99,
      "it": 100,
      "and": 101,
      "hand": 102,
      "ke": 103,
      "su": 104,
      "inv": 105,
      "oke": 106,
      "invoke": 107,
      "malloc": 108,
      "cmalloc": 109,
      "tcmalloc": 110,
      "handle": 111,
      "sa": 112,
      "run": 113,
      "ex": 114,
      "sav": 115,
      "ge": 116,
      "ba": 117,
      "re": 118,
      "od": 119,
      "pt": 120,
      "if": 121,
      "ptions": 122,
      "th": 123,
      "bas": 124,
      "d<>": 125,
      "ceptions": 126,
      "exceptions": 127,
      "pp": 128,
      "ted<>": 129,
      "inme": 130,
      "orted<>": 131,
      "supp": 132,
      "odif": 133,
      "thodif": 134,
      "exceptionsinme": 135,
      "supported<>": 136,
      "thodifsupported<>": 137,
      "exceptionsinmethodifsupported<>": 138,
      "flagimpl": 139,
      "_m": 140,
      "c_": 141,
      "impl<>": 142,
      "star": 143,
      "start": 144,
      "string": 145,
      "li": 146,
      "unit": 147,
      "unittest": 148,
      "op": 149,
      "ain": 150,
      "ain  ": 151,
      "ator": 152,
      "erator": 153,
      "operator": 154,
      "ate": 155,
      "__invoke": 156,
      "basi": 157,
      "_internal": 158,
      "_test": 159,
      "ym": 160,
      "ct": 161,
      "bo": 162,
      " n": 163,
      "age": 164,
      "se": 165,
      "sage": 166,
      "mes": 167,
      "get": 168,
      "11": 169,
      "cx": 170,
      "x11": 171,
      "cxx11": 172,
      "flagsav": 173,
      "flagsaver": 174,
      "test_": 175,
      "ro": 176,
      "save": 177,
      "fro": 178,
      "from": 179,
      "_alloc": 180,
      "__invoke_": 181,
      "hexceptionsinmethodifsupported<>": 182,
      "handleexceptionsinmethodifsupported<>": 183,
      "handlese": 184,
      "handlesehexceptionsinmethodifsupported<>": 185,
      "init": 186,
      "allocat": 187,
      "nv": 188,
      "allocations": 189,
      "gen": 190,
      "call": 191,
      "once": 192,
      "w_alloc": 193,
      "tcmalloc_internal": 194,
      "ze": 195,
      "fa": 196,
      "basic_": 197,
      "ea": 198,
      "allocationsi": 199,
      "ts": 200,
      "ats": 201,
      "unittestimpl": 202,
      "_s": 203,
      "ymbo": 204,
      "ymboli": 205,
      "can": 206,
      "ow_alloc": 207,
      "slow_alloc": 208,
      "ze  ": 209,
      "tsymboli": 210,
      "cantsymboli": 211,
      "cantsymbolize  ": 212,
      "_start": 213,
      "bc_": 214,
      "main  ": 215,
      "__li": 216,
      "_main  ": 217,
      "start_main  ": 218,
      "_start  ": 219,
      "bc_start_main  ": 220,
      "__libc_start_main  ": 221,
      "testats": 222,
      "allocationsitestats": 223,
      "for": 224,
      "mall": 225,
      "_small": 226,
      "basic_string": 227,
      "slow_alloc_small": 228,
      "slow_alloc_small<>": 229,
      "ew": 230,
      "__cxx11": 231,
      "to": 232,
      "operator n": 233,
      "operator new": 234,
      "__invoke_impl<>": 235,
      "ve": 236,
      "ace": 237,
      "tests": 238,
      "run_": 239,
      "_tests": 240,
      "ctor": 241,
      "message": 242,
      "ou": 243,
      "all_tests": 244,
      "run_all_tests": 245,
      "allocationsitestatstest_": 246,
      "base": 247,
      "basic_string<>": 248,
      "ltests": 249,
      "ru": 250,
      "nalltests": 251,
      "runalltests": 252,
      "strea": 253,
      "stream": 254,
      "fun": 255,
      "ction": 256,
      "function": 257,
      "de": 258,
      "usage": 259,
      "cusage": 260,
      "basicusage": 261,
      "allocationsitestatstest_basicusage": 262,
      "allocationsitestatstest_basicusage_test": 263,
      "gi": 264,
      "stry": 265,
      "gistry": 266,
      "registry": 267,
      "flagsaverimpl": 268,
      "savefrom": 269,
      "savefromregistry": 270,
      "ult": 271,
      "state": 272,
      "savestate": 273,
      "_m_": 274,
      "tes": 275,
      "ite": 276,
      "flag<>": 277,
      "teste": 278,
      "ames": 279,
      "pace": 280,
      "s n": 281,
      "onym": 282,
      "anonym": 283,
      "ous n": 284,
      "amespace": 285,
      "anonymous n": 286,
      "anonymous namespace": 287,
      "ol": 288,
      "env": 289,
      "rea": 290,
      "fault": 291,
      "default": 292,
      "_once": 293,
      "dat": 294,
      "gtest_": 295,
      "uar": 296,
      "aguar": 297,
      "flagdefault": 298,
      "abslflagdefault": 299,
      "invoke<>": 300,
      "__invoke<>": 301,
      "genfor": 302,
      "callonce": 303,
      "call_once": 304,
      "base_internal": 305,
      "dataguar": 306,
      "abslflagdefaultgenfor": 307,
      "callonceimpl<>": 308,
      "call_once<>": 309,
      "dataguard": 310,
      "abslflagdefaultgenforgtest_": 311,
      "var": 312,
      "gteste": 313,
      "flagto": 314,
      "fromgteste": 315,
      "envvar": 316,
      "flagtoenvvar": 317,
      "fromgtestenv": 318,
      "bool": 319,
      "testsu": 320,
      "testsuite": 321,
      "fo": 322,
      "info": 323,
      "testinfo": 324,
      "pr": 325,
      "read": 326,
      "ch": 327,
      "ut": 328,
      "oo": 329,
      "gle": 330,
      "goo": 331,
      "gletest": 332,
      "googletest": 333,
      "vector": 334,
      "ser": 335,
      "initgoogletest": 336,
      "cre": 337,
      "create": 338,
      ":cxx11": 339,
      "[ab": 340,
      "i:cxx11": 341,
      "[abi:cxx11": 342,
      "[abi:cxx11]": 343,
      "il": 344,
      "boolfromgtestenv": 345,
      "_hand": 346,
      "ler": 347,
      "_handler": 348,
      "yimpl<>": 349,
      "testfa": 350,
      "ctoryimpl<>": 351,
      "createtest": 352,
      "testfactoryimpl<>": 353,
      "pe": 354,
      "ac": 355,
      "am": 356,
      "#1": 357,
      "_function": 358,
      "bd": 359,
      "lam": 360,
      "r<>": 361,
      "{lam": 362,
      "__invoke_r<>": 363,
      "each": 364,
      "foreach": 365,
      "function<>": 366,
      "_m_invoke": 367,
      "_handler<>": 368,
      "#1}": 369,
      "_function_handler<>": 370,
      "bda": 371,
      "{lambda": 372,
      "foreachflag": 373,
      "tostring": 374,
      "iv": 375,
      "ss": 376,
      "cess": 377,
      "handleac": 378,
      "atehandleac": 379,
      "priv": 380,
      "cessor": 381,
      "atehandleaccessor": 382,
      "privatehandleaccessor": 383,
      "reser": 384,
      "reserve": 385,
      "invokeget": 386,
      "flagimplpe": 387,
      "getflag<>": 388,
      "invokeget<>": 389,
      "flagimplpeer": 390,
      "put": 391,
      "stringstream": 392,
      "string[abi:cxx11]": 393,
      "getstring[abi:cxx11]": 394,
      "stringstreamtostring": 395,
      "uf": 396,
      "vector<>": 397,
      " <>": 398,
      "<<": 399,
      "par": 400,
      "operator<<": 401,
      "operator<< <>": 402,
      "buf": 403,
      "initgoogletestimpl<>": 404,
      "readon": 405,
      "_m_re": 406,
      "int": 407,
      "buf<>": 408,
      "_base": 409,
      "_vector": 410,
      "allocate": 411,
      "_vector_base": 412,
      "fi": 413,
      "con": 414,
      "fil": 415,
      "po": 416,
      "filter": 417,
      "tput": 418,
      "output": 419,
      "ebool": 420,
      "readonebool": 421,
      "ne": 422,
      "_vector_base<>": 423,
      "place": 424,
      "ure": 425,
      "_m_m": 426,
      "utate": 427,
      "_m_mutate": 428,
      "fail": 429,
      "en": 430,
      "_m_replace": 431,
      "sing": 432,
      "stflag": 433,
      "parsing": 434,
      "postflag": 435,
      "parsinginit": 436,
      "postflagparsinginit": 437,
      "bod": 438,
      "testbod": 439,
      "testbody": 440,
      "t<>": 441,
      "ma": 442,
      "stream<>": 443,
      "__ne": 444,
      "ator<>": 445,
      "w_allocator<>": 446,
      "__new_allocator<>": 447,
      "ov": 448,
      "ow": 449,
      "flow": 450,
      "erflow": 451,
      "overflow": 452,
      "_in": 453,
      "sert<>": 454,
      "_insert<>": 455,
      "ten": 456,
      "ord": 457,
      "print": 458,
      "ostream": 459,
      "_allocate": 460,
      "basic_stringbuf<>": 461,
      "basic_stringstream<>": 462,
      "sion": 463,
      "mallocex": 464,
      "_m_allocate": 465,
      "tension": 466,
      "mallocextension": 467,
      "stringfromgtestenv": 468,
      "ele": 469,
      "ning": 470,
      "inele": 471,
      "arning": 472,
      "chinele": 473,
      "machinele": 474,
      "machinelearning": 475,
      "_ba": 476,
      "ck": 477,
      "_back": 478,
      "ize": 479,
      "_get": 480,
      "_fail": 481,
      "ly": 482,
      "son": 483,
      "flagson": 484,
      "parse": 485,
      "_failure": 486,
      "flagsonly": 487,
      "_test_": 488,
      "allocationsitestats  ": 489,
      "able": 490,
      "ation": 491,
      "fig": 492,
      "file": 493,
      "config": 494,
      "ed": 495,
      "mat": 496,
      "filtertests": 497,
      "sh": 498,
      "o_": 499,
      "uct": 500,
      "struct": 501,
      "construct": 502,
      "2fromgtestenv": 503,
      "32fromgtestenv": 504,
      "int32fromgtestenv": 505,
      "ath": 506,
      "eallocations": 507,
      "ipl": 508,
      "nt": 509,
      "test_m": 510,
      "sames": 511,
      "allocationsitestatstest_m": 512,
      "ultipl": 513,
      "ite_test": 514,
      "eallocationssames": 515,
      "allocationsitestatstest_multipl": 516,
      "eallocationssamesite_test": 517,
      "allocationsitestatstest_multipleallocationssamesite_test": 518,
      "cop": 519,
      "sult": 520,
      "result": 521,
      "fer": 522,
      "cord": 523,
      "unittestfilter": 524,
      "_t": 525,
      "malloc  ": 526,
      "ml": 527,
      "sput": 528,
      "xsput": 529,
      "construct<>": 530,
      "xsputn": 531,
      "_on": 532,
      "ecord": 533,
      "ive": 534,
      "testi": 535,
      "terecord": 536,
      "abse": 537,
      "allocationsiterecord": 538,
      "read<>": 539,
      "ilflagsonly": 540,
      "parseabse": 541,
      "_on_failure": 542,
      "allocationsiterecorder": 543,
      "parseabseilflagsonly": 544,
      "death": 545,
      "abslflagdefaultgenforgtest_death": 546,
      "abslflagdefaultgenforgtest_death_test_": 547,
      "abslflagdefaultgenforgtest_print": 548,
      "alloc_insert<>": 549,
      "_m_realloc_insert<>": 550,
      "stats": 551,
      "__ostream": 552,
      "basic_stream": 553,
      "_m_construct<>": 554,
      "__ostream_insert<>": 555,
      "basic_streambuf<>": 556,
      "pre": 557,
      "rex": 558,
      "urex": 559,
      "teration": 560,
      "ontesti": 561,
      "_internal_get": 562,
      "allocationsitestats[abi:cxx11]": 563,
      "create_": 564,
      "mallocextension_internal_get": 565,
      "configurex": 566,
      "mloutput": 567,
      "terationstart": 568,
      "ontestiterationstart": 569,
      "configurexmloutput": 570,
      "dif": 571,
      "s_test": 572,
      "tsize": 573,
      "allocationsitestatstest_dif": 574,
      "entsize": 575,
      "ferentsize": 576,
      "allocationsitestatstest_differentsize": 577,
      "allocationsitestatstest_differentsizes_test": 578,
      "copy": 579,
      "empl": 580,
      "ace_back": 581,
      "emplace_back": 582,
      "emplace_back<>": 583,
      "col": 584,
      "format": 585,
      "color": 586,
      "pu": 587,
      "sh_back": 588,
      "push_back": 589,
      "no": 590,
      "options": 591,
      "use": 592,
      "repe": 593,
      "unittestoptions": 594,
      "eword": 595,
      "abslflagdefaultgenforgtest_b": 596,
      "abslflagdefaultgenforgtest_fail": 597,
      "readoneword": 598,
      "repeat": 599,
      "abslflagdefaultgenforgtest_fail_": 600,
      "vent": 601,
      "testevent": 602,
      "ial": 603,
      "fromfunction": 604,
      "initial": 605,
      "allocatefromfunction": 606,
      "initialize": 607,
      "unittestresult": 608,
      "printer": 609,
      "unittestresultprinter": 610,
      "_i": 611,
      "machinelearningallocationsitestats  ": 612,
      "_io_": 613,
      "_copy": 614,
      "machinelearningstats": 615,
      "pea": 616,
      "repea": 617,
      "streamable": 618,
      "tostring<>": 619,
      "testeventrepea": 620,
      "streamabletostring<>": 621,
      "testeventrepeater": 622,
      "cat": 623,
      "k_t": 624,
      "race": 625,
      "stac": 626,
      "als": 627,
      "pth": 628,
      "thro": 629,
      "tcmalloc_internal_get": 630,
      "pos": 631,
      "k_trace": 632,
      "stack_trace": 633,
      "throw": 634,
      "tt": 635,
      "yunittestresultprinter": 636,
      "prett": 637,
      "prettyunittestresultprinter": 638,
      "s<>": 639,
      "flagop": 640,
      "flagops<>": 641,
      "_exceptions": 642,
      "_se": 643,
      "_for": 644,
      "_to": 645,
      "_de": 646,
      "_ut": 647,
      "_result": 648,
      "_no": 649,
      "_repeat": 650,
      "di": 651,
      "d_tests": 652,
      "f8": 653,
      "gnal": 654,
      "gat": 655,
      "hen": 656,
      "ir": 657,
      "ignal": 658,
      "k_on_failure": 659,
      "lin": 660,
      "m_se": 661,
      "om_se": 662,
      "rand": 663,
      "sable": 664,
      "when": 665,
      "inst": 666,
      "ingoutput": 667,
      "s_when": 668,
      "all_failure": 669,
      "onme": 670,
      "itive": 671,
      "andne": 672,
      "ked": 673,
      "recreate_": 674,
      "if_no": 675,
      "open": 676,
      "getoutput": 677,
      "_signal": 678,
      "run_di": 679,
      "stream_result": 680,
      "streamingoutput": 681,
      "envir": 682,
      "reak_on_failure": 683,
      "abslflagdefaultgenforgtest_cat": 684,
      "abslflagdefaultgenforgtest_als": 685,
      "abslflagdefaultgenforgtest_stack_trace": 686,
      "abslflagdefaultgenforgtest_throw": 687,
      "abslflagdefaultgenforgtest_rand": 688,
      "abslflagdefaultgenforgtest_inst": 689,
      "abslflagdefaultgenforgtest_recreate_": 690,
      "abslflagdefaultgenforgtest_stream_result": 691,
      "ch_exceptions": 692,
      "googletestflagsonly": 693,
      "urestreamingoutput": 694,
      "parsegoogletestflagsonly": 695,
      "_test_lin": 696,
      "configurestreamingoutput": 697,
      "o_run_di": 698,
      "nts_when": 699,
      "iveunittestfilter": 700,
      "parseabseilflagsonlyimpl": 701,
      "abslflagdefaultgenforgtest_death_test_use": 702,
      "abslflagdefaultgenforgtest_print_ut": 703,
      "format[abi:cxx11]": 704,
      "abslflagdefaultgenforgtest_break_on_failure": 705,
      "abslflagdefaultgenforgtest_fail_if_no": 706,
      "initialized": 707,
      "_copy<>": 708,
      "positive": 709,
      "_fork": 710,
      "_depth": 711,
      "_repeating": 712,
      "gativeunittestfilter": 713,
      "om_seed": 714,
      "sabled_tests": 715,
      "all_failure_signal": 716,
      "onments_when": 717,
      "andnegativeunittestfilter": 718,
      "getoutputformat[abi:cxx11]": 719,
      "environments_when": 720,
      "abslflagdefaultgenforgtest_catch_exceptions": 721,
      "abslflagdefaultgenforgtest_also_run_di": 722,
      "abslflagdefaultgenforgtest_stack_trace_depth": 723,
      "abslflagdefaultgenforgtest_throw_on_failure": 724,
      "abslflagdefaultgenforgtest_random_seed": 725,
      "abslflagdefaultgenforgtest_install_failure_signal": 726,
      "abslflagdefaultgenforgtest_recreate_environments_when": 727,
      "abslflagdefaultgenforgtest_stream_result_to": 728,
      "_test_linked": 729,
      "abslflagdefaultgenforgtest_death_test_use_fork": 730,
      "abslflagdefaultgenforgtest_print_utf8": 731,
      "abslflagdefaultgenforgtest_fail_if_no_test_linked": 732,
      "positiveandnegativeunittestfilter": 733,
      "abslflagdefaultgenforgtest_also_run_disabled_tests": 734,
      "abslflagdefaultgenforgtest_install_failure_signal_handler": 735,
      "abslflagdefaultgenforgtest_recreate_environments_when_repeating": 736,
      "yle": 737,
      "style": 738,
      "abslflagdefaultgenforgtest_death_test_style": 739,
      "cl": 740,
      "ime": 741,
      "one": 742,
      "getallocationsitestats[abi:cxx11]": 743,
      "_time": 744,
      "abslflagdefaultgenforgtest_print_time": 745,
      "mallocextension_internal_getallocationsitestats  ": 746,
      "clone": 747,
      "du": 748,
      "_a": 749,
      "e<>": 750,
      "rite": 751,
      "ue<>": 752,
      "write": 753,
      "getmachinelearning": 754,
      "mallocextension_internal_getmachinelearningallocationsitestats  ": 755,
      "getmachinelearningallocationsitestats[abi:cxx11]": 756,
      "cation": 757,
      "ication": 758,
      "plication": 759,
      "allocationsitestatstest_de": 760,
      "duplication": 761,
      "allocationsitestatstest_deduplication": 762,
      "allocationsitestatstest_deduplication_test": 763,
      "of": 764,
      "scop": 765,
      "stor": 766,
      "uninitialized": 767,
      "arg": 768,
      "itfile": 769,
      "exitfile": 770,
      "basic_file": 771,
      "basic_of": 772,
      "_m_create_": 773,
      "abslflagdefaultgenforgtest_output": 774,
      "ureexitfile": 775,
      "file_": 776,
      "edpre": 777,
      "matureexitfile": 778,
      "_io_file_": 779,
      "writemachinelearningstats": 780,
      "scopedpre": 781,
      "storage": 782,
      "_m_create_storage": 783,
      "scopedprematureexitfile": 784,
      "app": 785,
      "end": 786,
      "append": 787,
      "+<>": 788,
      "_l": 789,
      "_un": 790,
      "co": 791,
      "iq": 792,
      "ux": 793,
      "unt": 794,
      "arge": 795,
      "ke_un": 796,
      "operator+<>": 797,
      "getallocationsi": 798,
      "slow_alloc_l": 799,
      "_m_replace_a": 800,
      "make_un": 801,
      "printf": 802,
      "printstats": 803,
      "edprintf": 804,
      "coloredprintf": 805,
      "tcmalloc_internal_getallocationsitestats  ": 806,
      "count": 807,
      "ique<>": 808,
      "arge<>": 809,
      "getallocationsites": 810,
      "slow_alloc_large<>": 811,
      "_m_replace_aux": 812,
      "make_unique<>": 813,
      "set": 814,
      "_buf": 815,
      "basic_filebuf<>": 816,
      "_buffer": 817,
      "do": 818,
      "duse": 819,
      "ef": 820,
      "ist": 821,
      "ief": 822,
      "lduse": 823,
      "path": 824,
      "rief": 825,
      "spl": 826,
      "sol": 827,
      "ute": 828,
      "fle": 829,
      "slist": 830,
      "absol": 831,
      "uninit": 832,
      "__uninitialized": 833,
      "strre": 834,
      "itstring": 835,
      "thread": 836,
      "thread<>": 837,
      "getabsol": 838,
      "fast": 839,
      "tooutput": 840,
      "oulduse": 841,
      "abslflagdefaultgenforgtest_filter": 842,
      "abslflagdefaultgenforgtest_sh": 843,
      "abslflagdefaultgenforgtest_color": 844,
      "abslflagdefaultgenforgtest_repeat": 845,
      "uffle": 846,
      "placeall": 847,
      "printmachinelearningstats": 848,
      "file[abi:cxx11]": 849,
      "shoulduse": 850,
      "abslflagdefaultgenforgtest_brief": 851,
      "abslflagdefaultgenforgtest_fail_fast": 852,
      "allocatefromfunction1": 853,
      "allocatefromfunction3": 854,
      "tcmalloc_internal_getmachinelearningallocationsitestats  ": 855,
      "argslist": 856,
      "pathtooutput": 857,
      "splitstring": 858,
      "utepathtooutput": 859,
      "uninit_copy<>": 860,
      "strreplaceall": 861,
      "getabsolutepathtooutput": 862,
      "abslflagdefaultgenforgtest_shuffle": 863,
      "shouldusecolor": 864,
      "getabsolutepathtooutputfile[abi:cxx11]": 865,
      "gr": 866,
      "pro": 867,
      "setpro": 868,
      "gram": 869,
      "setprogram": 870,
      "fopen": 871,
      "_m_append": 872,
      "copyconstruct": 873,
      "_te": 874,
      "mp": 875,
      "xml": 876,
      "y_buffer": 877,
      "orar": 878,
      "ableno": 879,
      "formatcount": 880,
      "basic_ofstream": 881,
      "basic_ofstream<>": 882,
      "_temp": 883,
      "orary_buffer": 884,
      "ablenoun": 885,
      "formatcountablenoun": 886,
      "_temporary_buffer": 887,
      "_io_fopen": 888,
      "_io_fopen  ": 889,
      "_h": 890,
      "_p": 891,
      "_sa": 892,
      "_construct<>": 893,
      "_initialize": 894,
      "ame": 895,
      "ase": 896,
      "case": 897,
      "do_": 898,
      "es": 899,
      "fin": 900,
      "gtesti": 901,
      "ks_": 902,
      "name": 903,
      "ran": 904,
      "s[abi:cxx11]": 905,
      "sten": 906,
      "sinitialized": 907,
      "val": 908,
      "vs[abi:cxx11]": 909,
      "zer": 910,
      "stable": 911,
      "testcase": 912,
      "flagval": 913,
      "ontestcase": 914,
      "ort<>": 915,
      "or_p": 916,
      "mpled": 917,
      "ocation": 918,
      "alloc_small": 919,
      "allocbuf": 920,
      "ers": 921,
      "erthread<>": 922,
      "__uninit_copy<>": 923,
      "__do_": 924,
      "invocation": 925,
      "tcmallocinternal": 926,
      "ge_initialize": 927,
      "record": 928,
      "listen": 929,
      "getarg": 930,
      "allocation": 931,
      "_sort<>": 932,
      "_m_ran": 933,
      "ches": 934,
      "ooks_": 935,
      "allocate  ": 936,
      "overflow  ": 937,
      "matches": 938,
      "xsputn  ": 939,
      "testeventlisten": 940,
      "allocatefromfunction4": 941,
      "_io_do": 942,
      "_copy_a": 943,
      "uninitialized_copy<>": 944,
      "_io_file_do": 945,
      "_io_file_overflow  ": 946,
      "_io_file_xsputn  ": 947,
      "__uninitialized_copy<>": 948,
      "__uninitialized_copy_a": 949,
      "strreplaceall<>": 950,
      "strreplaceall[abi:cxx11]": 951,
      "setprograminvocation": 952,
      "xmlunittestresultprinter": 953,
      "_temporary_buffer<>": 954,
      "_hooks_": 955,
      "_sampled": 956,
      "gtestisinitialized": 957,
      "stable_sort<>": 958,
      "flagvalue<>": 959,
      "ontestcasestart": 960,
      "or_perthread<>": 961,
      "alloc_small_sampled": 962,
      "allocbuf  ": 963,
      "__do_uninit_copy<>": 964,
      "ge_initialize<>": 965,
      "recordallocation": 966,
      "getargvs[abi:cxx11]": 967,
      "_m_range_initialize<>": 968,
      "matchestest": 969,
      "testeventlisteners": 970,
      "_io_doallocbuf  ": 971,
      "_io_file_doallocate  ": 972,
      "__uninitialized_copy_a<>": 973,
      "setprograminvocationname": 974,
      "_hooks_or_perthread<>": 975,
      "alloc_small_sampled_hooks_or_perthread<>": 976,
      "usagemessage": 977,
      "setprogramusagemessage": 978,
      "nd": 979,
      "onteste": 980,
      "__basic_file": 981,
      "_internal_buffer": 982,
      "_m_allocate_internal_buffer": 983,
      "ontestend": 984,
      "__basic_file<>": 985,
      "_d": 986,
      "_create": 987,
      "_con": 988,
      "_thread": 989,
      "av": 990,
      "bst": 991,
      "calloc": 992,
      "cke": 993,
      "dsu": 994,
      "egistry": 995,
      "ecke": 996,
      "fwrite": 997,
      "gtest": 998,
      "hecke": 999,
      "ix": 1000,
      "izer": 1001,
      "ls": 1002,
      "l_allocate": 1003,
      "new": 1004,
      "os_": 1005,
      "p  ": 1006,
      "pon": 1007,
      "symboli": 1008,
      "upon": 1009,
      "alizer": 1010,
      "testcount": 1011,
      "inggtest": 1012,
      "flagals": 1013,
      "ochecke": 1014,
      "__str": 1015,
      "__stable_sort<>": 1016,
      "ions<>": 1017,
      "strdu": 1018,
      "leav": 1019,
      "itut": 1020,
      "_m_start": 1021,
      "strings_internal": 1022,
      "get_temporary_buffer<>": 1023,
      "nvvar": 1024,
      "generator": 1025,
      "defaultxml": 1026,
      "testsuitecount": 1027,
      "read_create": 1028,
      "outputflagals": 1029,
      "_getter": 1030,
      "_tls": 1031,
      "formattestcount": 1032,
      "formattestsuitecount": 1033,
      "nothrow": 1034,
      "allocatefromfunction2": 1035,
      "initializesymboli": 1036,
      "cat<>": 1037,
      "pthread_create": 1038,
      "posix": 1039,
      "stack_trace_getter": 1040,
      "setdefaultxml": 1041,
      "findsu": 1042,
      "finalizer": 1043,
      "tcmallocinternalcalloc": 1044,
      "tcmallocinternalnew": 1045,
      "_dl_allocate": 1046,
      "_concat<>": 1047,
      "bstitut": 1048,
      "fwrite  ": 1049,
      "os_stack_trace_getter": 1050,
      "uponleav": 1051,
      "ocheckenvvar": 1052,
      "__str_concat<>": 1053,
      "strdup  ": 1054,
      "_m_start_thread": 1055,
      "outputflagalsocheckenvvar": 1056,
      "_tls  ": 1057,
      "nothrow  ": 1058,
      "initializesymbolizer": 1059,
      "pthread_create  ": 1060,
      "setdefaultxmlgenerator": 1061,
      "findsubstitut": 1062,
      "finalizeregistry": 1063,
      "tcmallocinternalcalloc  ": 1064,
      "tcmallocinternalnewnothrow  ": 1065,
      "_dl_allocate_tls  ": 1066,
      "uponleavinggtest": 1067,
      "outputflagalsocheckenvvar[abi:cxx11]": 1068,
      "findsubstitutions<>": 1069
    },
    "merges": [
      [
        ":",
        ":"
      ],
      [
        "t",
        "e"
      ],
      [
        "i",
        "n"
      ],
      [
        "s",
        "t"
      ],
      [
        " ",
        " "
      ],
      [
        "a",
        "l"
      ],
      [
        "te",
        "st"
      ],
      [
        "n",
        "al"
      ],
      [
        "a",
        "g"
      ],
      [
        "te",
        "r"
      ],
      [
        "in",
        "ter"
      ],
      [
        "inter",
        "nal"
      ],
      [
        "<",
        ">"
      ],
      [
        "in",
        "g"
      ],
      [
        "f",
        "l"
      ],
      [
        "s",
        "_"
      ],
      [
        "fl",
        "ag"
      ],
      [
        "test",
        "ing"
      ],
      [
        "al",
        "l"
      ],
      [
        "s",
        "l"
      ],
      [
        "a",
        "b"
      ],
      [
        "o",
        "n"
      ],
      [
        "o",
        "r"
      ],
      [
        "l",
        "t"
      ],
      [
        "ab",
        "sl"
      ],
      [
        "p",
        "l"
      ],
      [
        "m",
        "pl"
      ],
      [
        "i",
        "mpl"
      ],
      [
        "0",
        "2"
      ],
      [
        "0",
        "8"
      ],
      [
        "1",
        "4"
      ],
      [
        "2",
        "02"
      ],
      [
        "5",
        "08"
      ],
      [
        "s_",
        "202"
      ],
      [
        "lt",
        "s_202"
      ],
      [
        "508",
        "14"
      ],
      [
        "lts_202",
        "50814"
      ],
      [
        "o",
        "c"
      ],
      [
        "all",
        "oc"
      ],
      [
        "u",
        "n"
      ],
      [
        "a",
        "t"
      ],
      [
        "st",
        "d"
      ],
      [
        "a",
        "n"
      ],
      [
        "c",
        "e"
      ],
      [
        "i",
        "on"
      ],
      [
        "e",
        "r"
      ],
      [
        "s_",
        "internal"
      ],
      [
        "flag",
        "s_internal"
      ],
      [
        "m",
        "e"
      ],
      [
        "_",
        "_"
      ],
      [
        "ion",
        "s"
      ],
      [
        "st",
        "r"
      ],
      [
        "a",
        "r"
      ],
      [
        "l",
        "e"
      ],
      [
        "i",
        "t"
      ],
      [
        "an",
        "d"
      ],
      [
        "h",
        "and"
      ],
      [
        "k",
        "e"
      ],
      [
        "s",
        "u"
      ],
      [
        "in",
        "v"
      ],
      [
        "o",
        "ke"
      ],
      [
        "inv",
        "oke"
      ],
      [
        "m",
        "alloc"
      ],
      [
        "c",
        "malloc"
      ],
      [
        "t",
        "cmalloc"
      ],
      [
        "hand",
        "le"
      ],
      [
        "s",
        "a"
      ],
      [
        "r",
        "un"
      ],
      [
        "e",
        "x"
      ],
      [
        "sa",
        "v"
      ],
      [
        "g",
        "e"
      ],
      [
        "b",
        "a"
      ],
      [
        "r",
        "e"
      ],
      [
        "o",
        "d"
      ],
      [
        "p",
        "t"
      ],
      [
        "i",
        "f"
      ],
      [
        "pt",
        "ions"
      ],
      [
        "t",
        "h"
      ],
      [
        "ba",
        "s"
      ],
      [
        "d",
        "<>"
      ],
      [
        "ce",
        "ptions"
      ],
      [
        "ex",
        "ceptions"
      ],
      [
        "p",
        "p"
      ],
      [
        "te",
        "d<>"
      ],
      [
        "in",
        "me"
      ],
      [
        "or",
        "ted<>"
      ],
      [
        "su",
        "pp"
      ],
      [
        "od",
        "if"
      ],
      [
        "th",
        "odif"
      ],
      [
        "exceptions",
        "inme"
      ],
      [
        "supp",
        "orted<>"
      ],
      [
        "thodif",
        "supported<>"
      ],
      [
        "exceptionsinme",
        "thodifsupported<>"
      ],
      [
        "flag",
        "impl"
      ],
      [
        "_",
        "m"
      ],
      [
        "c",
        "_"
      ],
      [
        "impl",
        "<>"
      ],
      [
        "st",
        "ar"
      ],
      [
        "star",
        "t"
      ],
      [
        "str",
        "ing"
      ],
      [
        "l",
        "i"
      ],
      [
        "un",
        "it"
      ],
      [
        "unit",
        "test"
      ],
      [
        "o",
        "p"
      ],
      [
        "a",
        "in"
      ],
      [
        "ain",
        "  "
      ],
      [
        "at",
        "or"
      ],
      [
        "er",
        "ator"
      ],
      [
        "op",
        "erator"
      ],
      [
        "a",
        "te"
      ],
      [
        "__",
        "invoke"
      ],
      [
        "bas",
        "i"
      ],
      [
        "_",
        "internal"
      ],
      [
        "_",
        "test"
      ],
      [
        "y",
        "m"
      ],
      [
        "c",
        "t"
      ],
      [
        "b",
        "o"
      ],
      [
        " ",
        "n"
      ],
      [
        "ag",
        "e"
      ],
      [
        "s",
        "e"
      ],
      [
        "s",
        "age"
      ],
      [
        "me",
        "s"
      ],
      [
        "ge",
        "t"
      ],
      [
        "1",
        "1"
      ],
      [
        "c",
        "x"
      ],
      [
        "x",
        "11"
      ],
      [
        "cx",
        "x11"
      ],
      [
        "flag",
        "sav"
      ],
      [
        "flagsav",
        "er"
      ],
      [
        "test",
        "_"
      ],
      [
        "r",
        "o"
      ],
      [
        "sav",
        "e"
      ],
      [
        "f",
        "ro"
      ],
      [
        "fro",
        "m"
      ],
      [
        "_",
        "alloc"
      ],
      [
        "__invoke",
        "_"
      ],
      [
        "h",
        "exceptionsinmethodifsupported<>"
      ],
      [
        "handle",
        "exceptionsinmethodifsupported<>"
      ],
      [
        "handle",
        "se"
      ],
      [
        "handlese",
        "hexceptionsinmethodifsupported<>"
      ],
      [
        "in",
        "it"
      ],
      [
        "alloc",
        "at"
      ],
      [
        "n",
        "v"
      ],
      [
        "allocat",
        "ions"
      ],
      [
        "ge",
        "n"
      ],
      [
        "c",
        "all"
      ],
      [
        "on",
        "ce"
      ],
      [
        "w",
        "_alloc"
      ],
      [
        "tcmalloc",
        "_internal"
      ],
      [
        "z",
        "e"
      ],
      [
        "f",
        "a"
      ],
      [
        "basi",
        "c_"
      ],
      [
        "e",
        "a"
      ],
      [
        "allocations",
        "i"
      ],
      [
        "t",
        "s"
      ],
      [
        "at",
        "s"
      ],
      [
        "unittest",
        "impl"
      ],
      [
        "_",
        "s"
      ],
      [
        "ym",
        "bo"
      ],
      [
        "ymbo",
        "li"
      ],
      [
        "c",
        "an"
      ],
      [
        "o",
        "w_alloc"
      ],
      [
        "sl",
        "ow_alloc"
      ],
      [
        "ze",
        "  "
      ],
      [
        "ts",
        "ymboli"
      ],
      [
        "can",
        "tsymboli"
      ],
      [
        "cantsymboli",
        "ze  "
      ],
      [
        "_",
        "start"
      ],
      [
        "b",
        "c_"
      ],
      [
        "m",
        "ain  "
      ],
      [
        "__",
        "li"
      ],
      [
        "_m",
        "ain  "
      ],
      [
        "start",
        "_main  "
      ],
      [
        "_start",
        "  "
      ],
      [
        "bc_",
        "start_main  "
      ],
      [
        "__li",
        "bc_start_main  "
      ],
      [
        "test",
        "ats"
      ],
      [
        "allocationsi",
        "testats"
      ],
      [
        "f",
        "or"
      ],
      [
        "m",
        "all"
      ],
      [
        "_s",
        "mall"
      ],
      [
        "basic_",
        "string"
      ],
      [
        "slow_alloc",
        "_small"
      ],
      [
        "slow_alloc_small",
        "<>"
      ],
      [
        "e",
        "w"
      ],
      [
        "__",
        "cxx11"
      ],
      [
        "t",
        "o"
      ],
      [
        "operator",
        " n"
      ],
      [
        "operator n",
        "ew"
      ],
      [
        "__invoke_",
        "impl<>"
      ],
      [
        "v",
        "e"
      ],
      [
        "a",
        "ce"
      ],
      [
        "test",
        "s"
      ],
      [
        "run",
        "_"
      ],
      [
        "_test",
        "s"
      ],
      [
        "ct",
        "or"
      ],
      [
        "mes",
        "sage"
      ],
      [
        "o",
        "u"
      ],
      [
        "all",
        "_tests"
      ],
      [
        "run_",
        "all_tests"
      ],
      [
        "allocationsitestats",
        "test_"
      ],
      [
        "bas",
        "e"
      ],
      [
        "basic_string",
        "<>"
      ],
      [
        "l",
        "tests"
      ],
      [
        "r",
        "u"
      ],
      [
        "nal",
        "ltests"
      ],
      [
        "ru",
        "nalltests"
      ],
      [
        "str",
        "ea"
      ],
      [
        "strea",
        "m"
      ],
      [
        "f",
        "un"
      ],
      [
        "ct",
        "ion"
      ],
      [
        "fun",
        "ction"
      ],
      [
        "d",
        "e"
      ],
      [
        "u",
        "sage"
      ],
      [
        "c",
        "usage"
      ],
      [
        "basi",
        "cusage"
      ],
      [
        "allocationsitestatstest_",
        "basicusage"
      ],
      [
        "allocationsitestatstest_basicusage",
        "_test"
      ],
      [
        "g",
        "i"
      ],
      [
        "str",
        "y"
      ],
      [
        "gi",
        "stry"
      ],
      [
        "re",
        "gistry"
      ],
      [
        "flagsaver",
        "impl"
      ],
      [
        "save",
        "from"
      ],
      [
        "savefrom",
        "registry"
      ],
      [
        "u",
        "lt"
      ],
      [
        "st",
        "ate"
      ],
      [
        "save",
        "state"
      ],
      [
        "_m",
        "_"
      ],
      [
        "te",
        "s"
      ],
      [
        "i",
        "te"
      ],
      [
        "flag",
        "<>"
      ],
      [
        "tes",
        "te"
      ],
      [
        "a",
        "mes"
      ],
      [
        "p",
        "ace"
      ],
      [
        "s",
        " n"
      ],
      [
        "on",
        "ym"
      ],
      [
        "an",
        "onym"
      ],
      [
        "ou",
        "s n"
      ],
      [
        "ames",
        "pace"
      ],
      [
        "anonym",
        "ous n"
      ],
      [
        "anonymous n",
        "amespace"
      ],
      [
        "o",
        "l"
      ],
      [
        "e",
        "nv"
      ],
      [
        "re",
        "a"
      ],
      [
        "fa",
        "ult"
      ],
      [
        "de",
        "fault"
      ],
      [
        "_",
        "once"
      ],
      [
        "d",
        "at"
      ],
      [
        "g",
        "test_"
      ],
      [
        "u",
        "ar"
      ],
      [
        "ag",
        "uar"
      ],
      [
        "flag",
        "default"
      ],
      [
        "absl",
        "flagdefault"
      ],
      [
        "invoke",
        "<>"
      ],
      [
        "__invoke",
        "<>"
      ],
      [
        "gen",
        "for"
      ],
      [
        "call",
        "once"
      ],
      [
        "call",
        "_once"
      ],
      [
        "base",
        "_internal"
      ],
      [
        "dat",
        "aguar"
      ],
      [
        "abslflagdefault",
        "genfor"
      ],
      [
        "callonce",
        "impl<>"
      ],
      [
        "call_once",
        "<>"
      ],
      [
        "dataguar",
        "d"
      ],
      [
        "abslflagdefaultgenfor",
        "gtest_"
      ],
      [
        "v",
        "ar"
      ],
      [
        "g",
        "teste"
      ],
      [
        "flag",
        "to"
      ],
      [
        "from",
        "gteste"
      ],
      [
        "env",
        "var"
      ],
      [
        "flagto",
        "envvar"
      ],
      [
        "fromgteste",
        "nv"
      ],
      [
        "bo",
        "ol"
      ],
      [
        "test",
        "su"
      ],
      [
        "testsu",
        "ite"
      ],
      [
        "f",
        "o"
      ],
      [
        "in",
        "fo"
      ],
      [
        "test",
        "info"
      ],
      [
        "p",
        "r"
      ],
      [
        "rea",
        "d"
      ],
      [
        "c",
        "h"
      ],
      [
        "u",
        "t"
      ],
      [
        "o",
        "o"
      ],
      [
        "g",
        "le"
      ],
      [
        "g",
        "oo"
      ],
      [
        "gle",
        "test"
      ],
      [
        "goo",
        "gletest"
      ],
      [
        "ve",
        "ctor"
      ],
      [
        "s",
        "er"
      ],
      [
        "init",
        "googletest"
      ],
      [
        "c",
        "re"
      ],
      [
        "cre",
        "ate"
      ],
      [
        ":",
        "cxx11"
      ],
      [
        "[",
        "ab"
      ],
      [
        "i",
        ":cxx11"
      ],
      [
        "[ab",
        "i:cxx11"
      ],
      [
        "[abi:cxx11",
        "]"
      ],
      [
        "i",
        "l"
      ],
      [
        "bool",
        "fromgtestenv"
      ],
      [
        "_",
        "hand"
      ],
      [
        "l",
        "er"
      ],
      [
        "_hand",
        "ler"
      ],
      [
        "y",
        "impl<>"
      ],
      [
        "test",
        "fa"
      ],
      [
        "ctor",
        "yimpl<>"
      ],
      [
        "create",
        "test"
      ],
      [
        "testfa",
        "ctoryimpl<>"
      ],
      [
        "p",
        "e"
      ],
      [
        "a",
        "c"
      ],
      [
        "a",
        "m"
      ],
      [
        "#",
        "1"
      ],
      [
        "_",
        "function"
      ],
      [
        "b",
        "d"
      ],
      [
        "l",
        "am"
      ],
      [
        "r",
        "<>"
      ],
      [
        "{",
        "lam"
      ],
      [
        "__invoke_",
        "r<>"
      ],
      [
        "ea",
        "ch"
      ],
      [
        "for",
        "each"
      ],
      [
        "function",
        "<>"
      ],
      [
        "_m_",
        "invoke"
      ],
      [
        "_handler",
        "<>"
      ],
      [
        "#1",
        "}"
      ],
      [
        "_function",
        "_handler<>"
      ],
      [
        "bd",
        "a"
      ],
      [
        "{lam",
        "bda"
      ],
      [
        "foreach",
        "flag"
      ],
      [
        "to",
        "string"
      ],
      [
        "i",
        "v"
      ],
      [
        "s",
        "s"
      ],
      [
        "ce",
        "ss"
      ],
      [
        "handle",
        "ac"
      ],
      [
        "ate",
        "handleac"
      ],
      [
        "pr",
        "iv"
      ],
      [
        "cess",
        "or"
      ],
      [
        "atehandleac",
        "cessor"
      ],
      [
        "priv",
        "atehandleaccessor"
      ],
      [
        "re",
        "ser"
      ],
      [
        "reser",
        "ve"
      ],
      [
        "invoke",
        "get"
      ],
      [
        "flagimpl",
        "pe"
      ],
      [
        "get",
        "flag<>"
      ],
      [
        "invokeget",
        "<>"
      ],
      [
        "flagimplpe",
        "er"
      ],
      [
        "p",
        "ut"
      ],
      [
        "string",
        "stream"
      ],
      [
        "string",
        "[abi:cxx11]"
      ],
      [
        "get",
        "string[abi:cxx11]"
      ],
      [
        "stringstream",
        "tostring"
      ],
      [
        "u",
        "f"
      ],
      [
        "vector",
        "<>"
      ],
      [
        " ",
        "<>"
      ],
      [
        "<",
        "<"
      ],
      [
        "p",
        "ar"
      ],
      [
        "operator",
        "<<"
      ],
      [
        "operator<<",
        " <>"
      ],
      [
        "b",
        "uf"
      ],
      [
        "initgoogletest",
        "impl<>"
      ],
      [
        "read",
        "on"
      ],
      [
        "_m_",
        "re"
      ],
      [
        "in",
        "t"
      ],
      [
        "buf",
        "<>"
      ],
      [
        "_",
        "base"
      ],
      [
        "_",
        "vector"
      ],
      [
        "alloc",
        "ate"
      ],
      [
        "_vector",
        "_base"
      ],
      [
        "f",
        "i"
      ],
      [
        "c",
        "on"
      ],
      [
        "f",
        "il"
      ],
      [
        "p",
        "o"
      ],
      [
        "fil",
        "ter"
      ],
      [
        "t",
        "put"
      ],
      [
        "ou",
        "tput"
      ],
      [
        "e",
        "bool"
      ],
      [
        "readon",
        "ebool"
      ],
      [
        "n",
        "e"
      ],
      [
        "_vector_base",
        "<>"
      ],
      [
        "pl",
        "ace"
      ],
      [
        "u",
        "re"
      ],
      [
        "_m",
        "_m"
      ],
      [
        "ut",
        "ate"
      ],
      [
        "_m_m",
        "utate"
      ],
      [
        "fa",
        "il"
      ],
      [
        "e",
        "n"
      ],
      [
        "_m_re",
        "place"
      ],
      [
        "s",
        "ing"
      ],
      [
        "st",
        "flag"
      ],
      [
        "par",
        "sing"
      ],
      [
        "po",
        "stflag"
      ],
      [
        "parsing",
        "init"
      ],
      [
        "postflag",
        "parsinginit"
      ],
      [
        "b",
        "od"
      ],
      [
        "test",
        "bod"
      ],
      [
        "testbod",
        "y"
      ],
      [
        "t",
        "<>"
      ],
      [
        "m",
        "a"
      ],
      [
        "stream",
        "<>"
      ],
      [
        "__",
        "ne"
      ],
      [
        "ator",
        "<>"
      ],
      [
        "w_alloc",
        "ator<>"
      ],
      [
        "__ne",
        "w_allocator<>"
      ],
      [
        "o",
        "v"
      ],
      [
        "o",
        "w"
      ],
      [
        "fl",
        "ow"
      ],
      [
        "er",
        "flow"
      ],
      [
        "ov",
        "erflow"
      ],
      [
        "_",
        "in"
      ],
      [
        "ser",
        "t<>"
      ],
      [
        "_in",
        "sert<>"
      ],
      [
        "te",
        "n"
      ],
      [
        "or",
        "d"
      ],
      [
        "pr",
        "int"
      ],
      [
        "o",
        "stream"
      ],
      [
        "_alloc",
        "ate"
      ],
      [
        "basic_string",
        "buf<>"
      ],
      [
        "basic_string",
        "stream<>"
      ],
      [
        "s",
        "ion"
      ],
      [
        "malloc",
        "ex"
      ],
      [
        "_m",
        "_allocate"
      ],
      [
        "ten",
        "sion"
      ],
      [
        "mallocex",
        "tension"
      ],
      [
        "string",
        "fromgtestenv"
      ],
      [
        "e",
        "le"
      ],
      [
        "n",
        "ing"
      ],
      [
        "in",
        "ele"
      ],
      [
        "ar",
        "ning"
      ],
      [
        "ch",
        "inele"
      ],
      [
        "ma",
        "chinele"
      ],
      [
        "machinele",
        "arning"
      ],
      [
        "_",
        "ba"
      ],
      [
        "c",
        "k"
      ],
      [
        "_ba",
        "ck"
      ],
      [
        "i",
        "ze"
      ],
      [
        "_",
        "get"
      ],
      [
        "_",
        "fail"
      ],
      [
        "l",
        "y"
      ],
      [
        "s",
        "on"
      ],
      [
        "flag",
        "son"
      ],
      [
        "par",
        "se"
      ],
      [
        "_fail",
        "ure"
      ],
      [
        "flagson",
        "ly"
      ],
      [
        "_test",
        "_"
      ],
      [
        "allocationsitestats",
        "  "
      ],
      [
        "ab",
        "le"
      ],
      [
        "at",
        "ion"
      ],
      [
        "fi",
        "g"
      ],
      [
        "fi",
        "le"
      ],
      [
        "con",
        "fig"
      ],
      [
        "e",
        "d"
      ],
      [
        "m",
        "at"
      ],
      [
        "filter",
        "tests"
      ],
      [
        "s",
        "h"
      ],
      [
        "o",
        "_"
      ],
      [
        "u",
        "ct"
      ],
      [
        "str",
        "uct"
      ],
      [
        "con",
        "struct"
      ],
      [
        "2",
        "fromgtestenv"
      ],
      [
        "3",
        "2fromgtestenv"
      ],
      [
        "int",
        "32fromgtestenv"
      ],
      [
        "at",
        "h"
      ],
      [
        "e",
        "allocations"
      ],
      [
        "i",
        "pl"
      ],
      [
        "n",
        "t"
      ],
      [
        "test",
        "_m"
      ],
      [
        "sa",
        "mes"
      ],
      [
        "allocationsitestats",
        "test_m"
      ],
      [
        "ult",
        "ipl"
      ],
      [
        "ite",
        "_test"
      ],
      [
        "eallocations",
        "sames"
      ],
      [
        "allocationsitestatstest_m",
        "ultipl"
      ],
      [
        "eallocationssames",
        "ite_test"
      ],
      [
        "allocationsitestatstest_multipl",
        "eallocationssamesite_test"
      ],
      [
        "c",
        "op"
      ],
      [
        "su",
        "lt"
      ],
      [
        "re",
        "sult"
      ],
      [
        "f",
        "er"
      ],
      [
        "c",
        "ord"
      ],
      [
        "unittest",
        "filter"
      ],
      [
        "_",
        "t"
      ],
      [
        "malloc",
        "  "
      ],
      [
        "m",
        "l"
      ],
      [
        "s",
        "put"
      ],
      [
        "x",
        "sput"
      ],
      [
        "construct",
        "<>"
      ],
      [
        "xsput",
        "n"
      ],
      [
        "_",
        "on"
      ],
      [
        "e",
        "cord"
      ],
      [
        "i",
        "ve"
      ],
      [
        "test",
        "i"
      ],
      [
        "ter",
        "ecord"
      ],
      [
        "ab",
        "se"
      ],
      [
        "allocationsi",
        "terecord"
      ],
      [
        "rea",
        "d<>"
      ],
      [
        "il",
        "flagsonly"
      ],
      [
        "parse",
        "abse"
      ],
      [
        "_on",
        "_failure"
      ],
      [
        "allocationsiterecord",
        "er"
      ],
      [
        "parseabse",
        "ilflagsonly"
      ],
      [
        "de",
        "ath"
      ],
      [
        "abslflagdefaultgenforgtest_",
        "death"
      ],
      [
        "abslflagdefaultgenforgtest_death",
        "_test_"
      ],
      [
        "abslflagdefaultgenforgtest_",
        "print"
      ],
      [
        "alloc",
        "_insert<>"
      ],
      [
        "_m_re",
        "alloc_insert<>"
      ],
      [
        "st",
        "ats"
      ],
      [
        "__",
        "ostream"
      ],
      [
        "basic_",
        "stream"
      ],
      [
        "_m_",
        "construct<>"
      ],
      [
        "__ostream",
        "_insert<>"
      ],
      [
        "basic_stream",
        "buf<>"
      ],
      [
        "p",
        "re"
      ],
      [
        "r",
        "ex"
      ],
      [
        "u",
        "rex"
      ],
      [
        "ter",
        "ation"
      ],
      [
        "on",
        "testi"
      ],
      [
        "_internal",
        "_get"
      ],
      [
        "allocationsitestats",
        "[abi:cxx11]"
      ],
      [
        "create",
        "_"
      ],
      [
        "mallocextension",
        "_internal_get"
      ],
      [
        "config",
        "urex"
      ],
      [
        "ml",
        "output"
      ],
      [
        "teration",
        "start"
      ],
      [
        "ontesti",
        "terationstart"
      ],
      [
        "configurex",
        "mloutput"
      ],
      [
        "d",
        "if"
      ],
      [
        "s_",
        "test"
      ],
      [
        "ts",
        "ize"
      ],
      [
        "allocationsitestatstest_",
        "dif"
      ],
      [
        "en",
        "tsize"
      ],
      [
        "fer",
        "entsize"
      ],
      [
        "allocationsitestatstest_dif",
        "ferentsize"
      ],
      [
        "allocationsitestatstest_differentsize",
        "s_test"
      ],
      [
        "cop",
        "y"
      ],
      [
        "e",
        "mpl"
      ],
      [
        "ace",
        "_back"
      ],
      [
        "empl",
        "ace_back"
      ],
      [
        "emplace_back",
        "<>"
      ],
      [
        "c",
        "ol"
      ],
      [
        "for",
        "mat"
      ],
      [
        "col",
        "or"
      ],
      [
        "p",
        "u"
      ],
      [
        "sh",
        "_back"
      ],
      [
        "pu",
        "sh_back"
      ],
      [
        "n",
        "o"
      ],
      [
        "o",
        "ptions"
      ],
      [
        "u",
        "se"
      ],
      [
        "re",
        "pe"
      ],
      [
        "unittest",
        "options"
      ],
      [
        "ew",
        "ord"
      ],
      [
        "abslflagdefaultgenforgtest_",
        "b"
      ],
      [
        "abslflagdefaultgenforgtest_",
        "fail"
      ],
      [
        "readon",
        "eword"
      ],
      [
        "repe",
        "at"
      ],
      [
        "abslflagdefaultgenforgtest_fail",
        "_"
      ],
      [
        "ve",
        "nt"
      ],
      [
        "teste",
        "vent"
      ],
      [
        "i",
        "al"
      ],
      [
        "from",
        "function"
      ],
      [
        "init",
        "ial"
      ],
      [
        "allocate",
        "fromfunction"
      ],
      [
        "initial",
        "ize"
      ],
      [
        "unittest",
        "result"
      ],
      [
        "pr",
        "inter"
      ],
      [
        "unittestresult",
        "printer"
      ],
      [
        "_",
        "i"
      ],
      [
        "machinelearning",
        "allocationsitestats  "
      ],
      [
        "_i",
        "o_"
      ],
      [
        "_",
        "copy"
      ],
      [
        "machinelearning",
        "stats"
      ],
      [
        "p",
        "ea"
      ],
      [
        "re",
        "pea"
      ],
      [
        "stream",
        "able"
      ],
      [
        "tostring",
        "<>"
      ],
      [
        "testevent",
        "repea"
      ],
      [
        "streamable",
        "tostring<>"
      ],
      [
        "testeventrepea",
        "ter"
      ],
      [
        "c",
        "at"
      ],
      [
        "k",
        "_t"
      ],
      [
        "r",
        "ace"
      ],
      [
        "st",
        "ac"
      ],
      [
        "al",
        "s"
      ],
      [
        "pt",
        "h"
      ],
      [
        "th",
        "ro"
      ],
      [
        "tcmalloc_internal",
        "_get"
      ],
      [
        "po",
        "s"
      ],
      [
        "k_t",
        "race"
      ],
      [
        "stac",
        "k_trace"
      ],
      [
        "thro",
        "w"
      ],
      [
        "t",
        "t"
      ],
      [
        "y",
        "unittestresultprinter"
      ],
      [
        "pre",
        "tt"
      ],
      [
        "prett",
        "yunittestresultprinter"
      ],
      [
        "s",
        "<>"
      ],
      [
        "flag",
        "op"
      ],
      [
        "flagop",
        "s<>"
      ],
      [
        "_",
        "exceptions"
      ],
      [
        "_",
        "se"
      ],
      [
        "_",
        "for"
      ],
      [
        "_",
        "to"
      ],
      [
        "_",
        "de"
      ],
      [
        "_",
        "ut"
      ],
      [
        "_",
        "result"
      ],
      [
        "_",
        "no"
      ],
      [
        "_",
        "repeat"
      ],
      [
        "d",
        "i"
      ],
      [
        "d",
        "_tests"
      ],
      [
        "f",
        "8"
      ],
      [
        "g",
        "nal"
      ],
      [
        "g",
        "at"
      ],
      [
        "h",
        "en"
      ],
      [
        "i",
        "r"
      ],
      [
        "i",
        "gnal"
      ],
      [
        "k",
        "_on_failure"
      ],
      [
        "l",
        "in"
      ],
      [
        "m",
        "_se"
      ],
      [
        "o",
        "m_se"
      ],
      [
        "r",
        "and"
      ],
      [
        "s",
        "able"
      ],
      [
        "w",
        "hen"
      ],
      [
        "in",
        "st"
      ],
      [
        "ing",
        "output"
      ],
      [
        "s_",
        "when"
      ],
      [
        "all",
        "_failure"
      ],
      [
        "on",
        "me"
      ],
      [
        "it",
        "ive"
      ],
      [
        "and",
        "ne"
      ],
      [
        "ke",
        "d"
      ],
      [
        "re",
        "create_"
      ],
      [
        "if",
        "_no"
      ],
      [
        "op",
        "en"
      ],
      [
        "get",
        "output"
      ],
      [
        "_s",
        "ignal"
      ],
      [
        "run_",
        "di"
      ],
      [
        "stream",
        "_result"
      ],
      [
        "stream",
        "ingoutput"
      ],
      [
        "env",
        "ir"
      ],
      [
        "rea",
        "k_on_failure"
      ],
      [
        "abslflagdefaultgenforgtest_",
        "cat"
      ],
      [
        "abslflagdefaultgenforgtest_",
        "als"
      ],
      [
        "abslflagdefaultgenforgtest_",
        "stack_trace"
      ],
      [
        "abslflagdefaultgenforgtest_",
        "throw"
      ],
      [
        "abslflagdefaultgenforgtest_",
        "rand"
      ],
      [
        "abslflagdefaultgenforgtest_",
        "inst"
      ],
      [
        "abslflagdefaultgenforgtest_",
        "recreate_"
      ],
      [
        "abslflagdefaultgenforgtest_",
        "stream_result"
      ],
      [
        "ch",
        "_exceptions"
      ],
      [
        "googletest",
        "flagsonly"
      ],
      [
        "ure",
        "streamingoutput"
      ],
      [
        "parse",
        "googletestflagsonly"
      ],
      [
        "_test_",
        "lin"
      ],
      [
        "config",
        "urestreamingoutput"
      ],
      [
        "o_",
        "run_di"
      ],
      [
        "nt",
        "s_when"
      ],
      [
        "ive",
        "unittestfilter"
      ],
      [
        "parseabseilflagsonly",
        "impl"
      ],
      [
        "abslflagdefaultgenforgtest_death_test_",
        "use"
      ],
      [
        "abslflagdefaultgenforgtest_print",
        "_ut"
      ],
      [
        "format",
        "[abi:cxx11]"
      ],
      [
        "abslflagdefaultgenforgtest_b",
        "reak_on_failure"
      ],
      [
        "abslflagdefaultgenforgtest_fail_",
        "if_no"
      ],
      [
        "initialize",
        "d"
      ],
      [
        "_copy",
        "<>"
      ],
      [
        "pos",
        "itive"
      ],
      [
        "_for",
        "k"
      ],
      [
        "_de",
        "pth"
      ],
      [
        "_repeat",
        "ing"
      ],
      [
        "gat",
        "iveunittestfilter"
      ],
      [
        "om_se",
        "ed"
      ],
      [
        "sable",
        "d_tests"
      ],
      [
        "all_failure",
        "_signal"
      ],
      [
        "onme",
        "nts_when"
      ],
      [
        "andne",
        "gativeunittestfilter"
      ],
      [
        "getoutput",
        "format[abi:cxx11]"
      ],
      [
        "envir",
        "onments_when"
      ],
      [
        "abslflagdefaultgenforgtest_cat",
        "ch_exceptions"
      ],
      [
        "abslflagdefaultgenforgtest_als",
        "o_run_di"
      ],
      [
        "abslflagdefaultgenforgtest_stack_trace",
        "_depth"
      ],
      [
        "abslflagdefaultgenforgtest_throw",
        "_on_failure"
      ],
      [
        "abslflagdefaultgenforgtest_rand",
        "om_seed"
      ],
      [
        "abslflagdefaultgenforgtest_inst",
        "all_failure_signal"
      ],
      [
        "abslflagdefaultgenforgtest_recreate_",
        "environments_when"
      ],
      [
        "abslflagdefaultgenforgtest_stream_result",
        "_to"
      ],
      [
        "_test_lin",
        "ked"
      ],
      [
        "abslflagdefaultgenforgtest_death_test_use",
        "_fork"
      ],
      [
        "abslflagdefaultgenforgtest_print_ut",
        "f8"
      ],
      [
        "abslflagdefaultgenforgtest_fail_if_no",
        "_test_linked"
      ],
      [
        "positive",
        "andnegativeunittestfilter"
      ],
      [
        "abslflagdefaultgenforgtest_also_run_di",
        "sabled_tests"
      ],
      [
        "abslflagdefaultgenforgtest_install_failure_signal",
        "_handler"
      ],
      [
        "abslflagdefaultgenforgtest_recreate_environments_when",
        "_repeating"
      ],
      [
        "y",
        "le"
      ],
      [
        "st",
        "yle"
      ],
      [
        "abslflagdefaultgenforgtest_death_test_",
        "style"
      ],
      [
        "c",
        "l"
      ],
      [
        "i",
        "me"
      ],
      [
        "on",
        "e"
      ],
      [
        "get",
        "allocationsitestats[abi:cxx11]"
      ],
      [
        "_t",
        "ime"
      ],
      [
        "abslflagdefaultgenforgtest_print",
        "_time"
      ],
      [
        "mallocextension_internal_get",
        "allocationsitestats  "
      ],
      [
        "cl",
        "one"
      ],
      [
        "d",
        "u"
      ],
      [
        "_",
        "a"
      ],
      [
        "e",
        "<>"
      ],
      [
        "r",
        "ite"
      ],
      [
        "u",
        "e<>"
      ],
      [
        "w",
        "rite"
      ],
      [
        "get",
        "machinelearning"
      ],
      [
        "mallocextension_internal_get",
        "machinelearningallocationsitestats  "
      ],
      [
        "getmachinelearning",
        "allocationsitestats[abi:cxx11]"
      ],
      [
        "c",
        "ation"
      ],
      [
        "i",
        "cation"
      ],
      [
        "pl",
        "ication"
      ],
      [
        "allocationsitestatstest_",
        "de"
      ],
      [
        "du",
        "plication"
      ],
      [
        "allocationsitestatstest_de",
        "duplication"
      ],
      [
        "allocationsitestatstest_deduplication",
        "_test"
      ],
      [
        "o",
        "f"
      ],
      [
        "s",
        "cop"
      ],
      [
        "st",
        "or"
      ],
      [
        "un",
        "initialized"
      ],
      [
        "ar",
        "g"
      ],
      [
        "it",
        "file"
      ],
      [
        "ex",
        "itfile"
      ],
      [
        "basic_",
        "file"
      ],
      [
        "basic_",
        "of"
      ],
      [
        "_m_",
        "create_"
      ],
      [
        "abslflagdefaultgenforgtest_",
        "output"
      ],
      [
        "ure",
        "exitfile"
      ],
      [
        "file",
        "_"
      ],
      [
        "ed",
        "pre"
      ],
      [
        "mat",
        "ureexitfile"
      ],
      [
        "_io_",
        "file_"
      ],
      [
        "write",
        "machinelearningstats"
      ],
      [
        "scop",
        "edpre"
      ],
      [
        "stor",
        "age"
      ],
      [
        "_m_create_",
        "storage"
      ],
      [
        "scopedpre",
        "matureexitfile"
      ],
      [
        "a",
        "pp"
      ],
      [
        "en",
        "d"
      ],
      [
        "app",
        "end"
      ],
      [
        "+",
        "<>"
      ],
      [
        "_",
        "l"
      ],
      [
        "_",
        "un"
      ],
      [
        "c",
        "o"
      ],
      [
        "i",
        "q"
      ],
      [
        "u",
        "x"
      ],
      [
        "un",
        "t"
      ],
      [
        "ar",
        "ge"
      ],
      [
        "ke",
        "_un"
      ],
      [
        "operator",
        "+<>"
      ],
      [
        "get",
        "allocationsi"
      ],
      [
        "slow_alloc",
        "_l"
      ],
      [
        "_m_replace",
        "_a"
      ],
      [
        "ma",
        "ke_un"
      ],
      [
        "print",
        "f"
      ],
      [
        "print",
        "stats"
      ],
      [
        "ed",
        "printf"
      ],
      [
        "color",
        "edprintf"
      ],
      [
        "tcmalloc_internal_get",
        "allocationsitestats  "
      ],
      [
        "co",
        "unt"
      ],
      [
        "iq",
        "ue<>"
      ],
      [
        "arge",
        "<>"
      ],
      [
        "getallocationsi",
        "tes"
      ],
      [
        "slow_alloc_l",
        "arge<>"
      ],
      [
        "_m_replace_a",
        "ux"
      ],
      [
        "make_un",
        "ique<>"
      ],
      [
        "se",
        "t"
      ],
      [
        "_",
        "buf"
      ],
      [
        "basic_file",
        "buf<>"
      ],
      [
        "_buf",
        "fer"
      ],
      [
        "d",
        "o"
      ],
      [
        "d",
        "use"
      ],
      [
        "e",
        "f"
      ],
      [
        "i",
        "st"
      ],
      [
        "i",
        "ef"
      ],
      [
        "l",
        "duse"
      ],
      [
        "p",
        "ath"
      ],
      [
        "r",
        "ief"
      ],
      [
        "s",
        "pl"
      ],
      [
        "s",
        "ol"
      ],
      [
        "u",
        "te"
      ],
      [
        "fl",
        "e"
      ],
      [
        "sl",
        "ist"
      ],
      [
        "ab",
        "sol"
      ],
      [
        "un",
        "init"
      ],
      [
        "__",
        "uninitialized"
      ],
      [
        "str",
        "re"
      ],
      [
        "it",
        "string"
      ],
      [
        "th",
        "read"
      ],
      [
        "th",
        "read<>"
      ],
      [
        "get",
        "absol"
      ],
      [
        "fa",
        "st"
      ],
      [
        "to",
        "output"
      ],
      [
        "ou",
        "lduse"
      ],
      [
        "abslflagdefaultgenforgtest_",
        "filter"
      ],
      [
        "abslflagdefaultgenforgtest_",
        "sh"
      ],
      [
        "abslflagdefaultgenforgtest_",
        "color"
      ],
      [
        "abslflagdefaultgenforgtest_",
        "repeat"
      ],
      [
        "uf",
        "fle"
      ],
      [
        "place",
        "all"
      ],
      [
        "print",
        "machinelearningstats"
      ],
      [
        "file",
        "[abi:cxx11]"
      ],
      [
        "sh",
        "oulduse"
      ],
      [
        "abslflagdefaultgenforgtest_b",
        "rief"
      ],
      [
        "abslflagdefaultgenforgtest_fail_",
        "fast"
      ],
      [
        "allocatefromfunction",
        "1"
      ],
      [
        "allocatefromfunction",
        "3"
      ],
      [
        "tcmalloc_internal_get",
        "machinelearningallocationsitestats  "
      ],
      [
        "arg",
        "slist"
      ],
      [
        "path",
        "tooutput"
      ],
      [
        "spl",
        "itstring"
      ],
      [
        "ute",
        "pathtooutput"
      ],
      [
        "uninit",
        "_copy<>"
      ],
      [
        "strre",
        "placeall"
      ],
      [
        "getabsol",
        "utepathtooutput"
      ],
      [
        "abslflagdefaultgenforgtest_sh",
        "uffle"
      ],
      [
        "shoulduse",
        "color"
      ],
      [
        "getabsolutepathtooutput",
        "file[abi:cxx11]"
      ],
      [
        "g",
        "r"
      ],
      [
        "p",
        "ro"
      ],
      [
        "set",
        "pro"
      ],
      [
        "gr",
        "am"
      ],
      [
        "setpro",
        "gram"
      ],
      [
        "f",
        "open"
      ],
      [
        "_m_",
        "append"
      ],
      [
        "copy",
        "construct"
      ],
      [
        "_",
        "te"
      ],
      [
        "m",
        "p"
      ],
      [
        "x",
        "ml"
      ],
      [
        "y",
        "_buffer"
      ],
      [
        "or",
        "ar"
      ],
      [
        "able",
        "no"
      ],
      [
        "format",
        "count"
      ],
      [
        "basic_of",
        "stream"
      ],
      [
        "basic_of",
        "stream<>"
      ],
      [
        "_te",
        "mp"
      ],
      [
        "orar",
        "y_buffer"
      ],
      [
        "ableno",
        "un"
      ],
      [
        "formatcount",
        "ablenoun"
      ],
      [
        "_temp",
        "orary_buffer"
      ],
      [
        "_io_",
        "fopen"
      ],
      [
        "_io_fopen",
        "  "
      ],
      [
        "_",
        "h"
      ],
      [
        "_",
        "p"
      ],
      [
        "_",
        "sa"
      ],
      [
        "_",
        "construct<>"
      ],
      [
        "_",
        "initialize"
      ],
      [
        "a",
        "me"
      ],
      [
        "a",
        "se"
      ],
      [
        "c",
        "ase"
      ],
      [
        "d",
        "o_"
      ],
      [
        "e",
        "s"
      ],
      [
        "f",
        "in"
      ],
      [
        "g",
        "testi"
      ],
      [
        "k",
        "s_"
      ],
      [
        "n",
        "ame"
      ],
      [
        "r",
        "an"
      ],
      [
        "s",
        "[abi:cxx11]"
      ],
      [
        "s",
        "ten"
      ],
      [
        "s",
        "initialized"
      ],
      [
        "v",
        "al"
      ],
      [
        "v",
        "s[abi:cxx11]"
      ],
      [
        "z",
        "er"
      ],
      [
        "st",
        "able"
      ],
      [
        "test",
        "case"
      ],
      [
        "flag",
        "val"
      ],
      [
        "on",
        "testcase"
      ],
      [
        "or",
        "t<>"
      ],
      [
        "or",
        "_p"
      ],
      [
        "mpl",
        "ed"
      ],
      [
        "oc",
        "ation"
      ],
      [
        "alloc",
        "_small"
      ],
      [
        "alloc",
        "buf"
      ],
      [
        "er",
        "s"
      ],
      [
        "er",
        "thread<>"
      ],
      [
        "__",
        "uninit_copy<>"
      ],
      [
        "__",
        "do_"
      ],
      [
        "inv",
        "ocation"
      ],
      [
        "tcmalloc",
        "internal"
      ],
      [
        "ge",
        "_initialize"
      ],
      [
        "re",
        "cord"
      ],
      [
        "li",
        "sten"
      ],
      [
        "get",
        "arg"
      ],
      [
        "allocat",
        "ion"
      ],
      [
        "_s",
        "ort<>"
      ],
      [
        "_m_",
        "ran"
      ],
      [
        "ch",
        "es"
      ],
      [
        "oo",
        "ks_"
      ],
      [
        "allocate",
        "  "
      ],
      [
        "overflow",
        "  "
      ],
      [
        "mat",
        "ches"
      ],
      [
        "xsputn",
        "  "
      ],
      [
        "testevent",
        "listen"
      ],
      [
        "allocatefromfunction",
        "4"
      ],
      [
        "_io_",
        "do"
      ],
      [
        "_copy",
        "_a"
      ],
      [
        "uninitialized",
        "_copy<>"
      ],
      [
        "_io_file_",
        "do"
      ],
      [
        "_io_file_",
        "overflow  "
      ],
      [
        "_io_file_",
        "xsputn  "
      ],
      [
        "__uninitialized",
        "_copy<>"
      ],
      [
        "__uninitialized",
        "_copy_a"
      ],
      [
        "strreplaceall",
        "<>"
      ],
      [
        "strreplaceall",
        "[abi:cxx11]"
      ],
      [
        "setprogram",
        "invocation"
      ],
      [
        "xml",
        "unittestresultprinter"
      ],
      [
        "_temporary_buffer",
        "<>"
      ],
      [
        "_h",
        "ooks_"
      ],
      [
        "_sa",
        "mpled"
      ],
      [
        "gtesti",
        "sinitialized"
      ],
      [
        "stable",
        "_sort<>"
      ],
      [
        "flagval",
        "ue<>"
      ],
      [
        "ontestcase",
        "start"
      ],
      [
        "or_p",
        "erthread<>"
      ],
      [
        "alloc_small",
        "_sampled"
      ],
      [
        "allocbuf",
        "  "
      ],
      [
        "__do_",
        "uninit_copy<>"
      ],
      [
        "ge_initialize",
        "<>"
      ],
      [
        "record",
        "allocation"
      ],
      [
        "getarg",
        "vs[abi:cxx11]"
      ],
      [
        "_m_ran",
        "ge_initialize<>"
      ],
      [
        "matches",
        "test"
      ],
      [
        "testeventlisten",
        "ers"
      ],
      [
        "_io_do",
        "allocbuf  "
      ],
      [
        "_io_file_do",
        "allocate  "
      ],
      [
        "__uninitialized_copy_a",
        "<>"
      ],
      [
        "setprograminvocation",
        "name"
      ],
      [
        "_hooks_",
        "or_perthread<>"
      ],
      [
        "alloc_small_sampled",
        "_hooks_or_perthread<>"
      ],
      [
        "usage",
        "message"
      ],
      [
        "setprogram",
        "usagemessage"
      ],
      [
        "n",
        "d"
      ],
      [
        "on",
        "teste"
      ],
      [
        "__",
        "basic_file"
      ],
      [
        "_internal",
        "_buffer"
      ],
      [
        "_m_allocate",
        "_internal_buffer"
      ],
      [
        "onteste",
        "nd"
      ],
      [
        "__basic_file",
        "<>"
      ],
      [
        "_",
        "d"
      ],
      [
        "_",
        "create"
      ],
      [
        "_",
        "con"
      ],
      [
        "_",
        "thread"
      ],
      [
        "a",
        "v"
      ],
      [
        "b",
        "st"
      ],
      [
        "c",
        "alloc"
      ],
      [
        "c",
        "ke"
      ],
      [
        "d",
        "su"
      ],
      [
        "e",
        "gistry"
      ],
      [
        "e",
        "cke"
      ],
      [
        "f",
        "write"
      ],
      [
        "g",
        "test"
      ],
      [
        "h",
        "ecke"
      ],
      [
        "i",
        "x"
      ],
      [
        "i",
        "zer"
      ],
      [
        "l",
        "s"
      ],
      [
        "l",
        "_allocate"
      ],
      [
        "n",
        "ew"
      ],
      [
        "o",
        "s_"
      ],
      [
        "p",
        "  "
      ],
      [
        "p",
        "on"
      ],
      [
        "s",
        "ymboli"
      ],
      [
        "u",
        "pon"
      ],
      [
        "al",
        "izer"
      ],
      [
        "test",
        "count"
      ],
      [
        "ing",
        "gtest"
      ],
      [
        "flag",
        "als"
      ],
      [
        "oc",
        "hecke"
      ],
      [
        "__",
        "str"
      ],
      [
        "__",
        "stable_sort<>"
      ],
      [
        "ions",
        "<>"
      ],
      [
        "str",
        "du"
      ],
      [
        "le",
        "av"
      ],
      [
        "it",
        "ut"
      ],
      [
        "_m",
        "_start"
      ],
      [
        "string",
        "s_internal"
      ],
      [
        "get",
        "_temporary_buffer<>"
      ],
      [
        "nv",
        "var"
      ],
      [
        "gen",
        "erator"
      ],
      [
        "default",
        "xml"
      ],
      [
        "testsuite",
        "count"
      ],
      [
        "read",
        "_create"
      ],
      [
        "output",
        "flagals"
      ],
      [
        "_get",
        "ter"
      ],
      [
        "_t",
        "ls"
      ],
      [
        "format",
        "testcount"
      ],
      [
        "format",
        "testsuitecount"
      ],
      [
        "no",
        "throw"
      ],
      [
        "allocatefromfunction",
        "2"
      ],
      [
        "initialize",
        "symboli"
      ],
      [
        "cat",
        "<>"
      ],
      [
        "pth",
        "read_create"
      ],
      [
        "pos",
        "ix"
      ],
      [
        "stack_trace",
        "_getter"
      ],
      [
        "set",
        "defaultxml"
      ],
      [
        "fin",
        "dsu"
      ],
      [
        "fin",
        "alizer"
      ],
      [
        "tcmallocinternal",
        "calloc"
      ],
      [
        "tcmallocinternal",
        "new"
      ],
      [
        "_d",
        "l_allocate"
      ],
      [
        "_con",
        "cat<>"
      ],
      [
        "bst",
        "itut"
      ],
      [
        "fwrite",
        "  "
      ],
      [
        "os_",
        "stack_trace_getter"
      ],
      [
        "upon",
        "leav"
      ],
      [
        "ochecke",
        "nvvar"
      ],
      [
        "__str",
        "_concat<>"
      ],
      [
        "strdu",
        "p  "
      ],
      [
        "_m_start",
        "_thread"
      ],
      [
        "outputflagals",
        "ocheckenvvar"
      ],
      [
        "_tls",
        "  "
      ],
      [
        "nothrow",
        "  "
      ],
      [
        "initializesymboli",
        "zer"
      ],
      [
        "pthread_create",
        "  "
      ],
      [
        "setdefaultxml",
        "generator"
      ],
      [
        "findsu",
        "bstitut"
      ],
      [
        "finalizer",
        "egistry"
      ],
      [
        "tcmallocinternalcalloc",
        "  "
      ],
      [
        "tcmallocinternalnew",
        "nothrow  "
      ],
      [
        "_dl_allocate",
        "_tls  "
      ],
      [
        "uponleav",
        "inggtest"
      ],
      [
        "outputflagalsocheckenvvar",
        "[abi:cxx11]"
      ],
      [
        "findsubstitut",
        "ions<>"
      ]
    ]
  }
}