{
  "version": "1.0",
  "truncation": null,
  "padding": null,
  "added_tokens": [
    {
      "id": 0,
      "content": "[UNK]",
      "single_word": false,
      "lstrip": false,
      "rstrip": false,
      "normalized": false,
      "special": true
    }
  ],
  "normalizer": {
    "type": "BertNormalizer",
    "clean_text": true,
    "handle_chinese_chars": true,
    "strip_accents": null,
    "lowercase": true
  },
  "pre_tokenizer": {
    "type": "Split",
    "pattern": {
      "String": "::|,|(|)|\n"
    },
    "behavior": "Isolated",
    "invert": false
  },
  "post_processor": null,
  "decoder": null,
  "model": {
    "type": "BPE",
    "dropout": null,
    "unk_token": "[UNK]",
    "continuing_subword_prefix": null,
    "end_of_word_suffix": null,
    "fuse_unk": false,
    "byte_fallback": false,
    "ignore_merges": false,
    "vocab": {
      "[UNK]": 0,
      " ": 1,
      "#": 2,
      "(": 3,
      ")": 4,
      "+": 5,
      "0": 6,
      "1": 7,
      "2": 8,
      "3": 9,
      "4": 10,
      "5": 11,
      "8": 12,
      ":": 13,
      "<": 14,
      ">": 15,
      "[": 16,
      "]": 17,
      "_": 18,
      "a": 19,
      "b": 20,
      "c": 21,
      "d": 22,
      "e": 23,
      "f": 24,
      "g": 25,
      "h": 26,
      "i": 27,
      "k": 28,
      "l": 29,
      "m": 30,
      "n": 31,
      "o": 32,
      "p": 33,
      "q": 34,
      "r": 35,
      "s": 36,
      "t": 37,
      "u": 38,
      "v": 39,
      "w": 40,
      "x": 41,
      "y": 42,
      "z": 43,
      "{": 44,
      "}": 45,
      "::": 46,
      "te": 47,
      "in": 48,
      "st": 49,
      "  ": 50,
      "()": 51,
      "()  ": 52,
      "l::": 53,
      "test": 54,
      "na": 55,
      "ag": 56,
      "ter": 57,
      "inter": 58,
      "interna": 59,
      "internal::": 60,
      "<>": 61,
      "ing": 62,
      "fl": 63,
      "s_": 64,
      "flag": 65,
      "ll": 66,
      "ing::": 67,
      "testing::": 68,
      "all": 69,
      "<>()  ": 70,
      "ab": 71,
      "on": 72,
      "or": 73,
      "lt": 74,
      "abs": 75,
      "mp": 76,
      "imp": 77,
      "02": 78,
      "08": 79,
      "14": 80,
      "202": 81,
      "508": 82,
      "l::lt": 83,
      "s_202": 84,
      "absl::lt": 85,
      "14::": 86,
      "50814::": 87,
      "s_20250814::": 88,
      "absl::lts_20250814::": 89,
      "testing::internal::": 90,
      "oc": 91,
      "alloc": 92,
      "un": 93,
      "at": 94,
      "d::": 95,
      "std::": 96,
      "an": 97,
      "ce": 98,
      "ion": 99,
      "er": 100,
      "absl::lts_20250814::flag": 101,
      "s_internal::": 102,
      "absl::lts_20250814::flags_internal::": 103,
      "et": 104,
      "__": 105,
      "ions": 106,
      "impl::": 107,
      "str": 108,
      "le": 109,
      "ar": 110,
      "absl::lts_20250814::flags_internal::flag": 111,
      "it": 112,
      "and": 113,
      "hand": 114,
      "ke": 115,
      "su": 116,
      "inv": 117,
      "oke": 118,
      "invoke": 119,
      "malloc": 120,
      "std::__": 121,
      "<>::": 122,
      "cmalloc": 123,
      "tcmalloc": 124,
      "handle": 125,
      "sa": 126,
      "run": 127,
      "ex": 128,
      "sav": 129,
      "ba": 130,
      "re": 131,
      "od": 132,
      "pt": 133,
      "if": 134,
      "ptions": 135,
      "bas": 136,
      "d<>()  ": 137,
      "ceptions": 138,
      "exceptions": 139,
      "pp": 140,
      "hod": 141,
      "met": 142,
      "ted<>()  ": 143,
      "inmet": 144,
      "orted<>()  ": 145,
      "testing::internal::handle": 146,
      "supp": 147,
      "ifsupp": 148,
      "exceptionsinmet": 149,
      "hodifsupp": 150,
      "exceptionsinmethodifsupp": 151,
      "exceptionsinmethodifsupported<>()  ": 152,
      "impl": 153,
      "_m": 154,
      "li": 155,
      "c_": 156,
      "star": 157,
      "start": 158,
      "string": 159,
      "op": 160,
      "absl::lts_20250814::flags_internal::flagimpl::": 161,
      "unit": 162,
      "unittest": 163,
      "ain": 164,
      "ain  ": 165,
      "ator": 166,
      "en": 167,
      "::run": 168,
      "::run()  ": 169,
      "erator": 170,
      "operator": 171,
      "ate": 172,
      "std::__invoke": 173,
      "basi": 174,
      "impl<>()  ": 175,
      "_test": 176,
      "tcmalloc::": 177,
      "s()  ": 178,
      "_internal::": 179,
      "ct": 180,
      "ym": 181,
      "bo": 182,
      "me": 183,
      "age": 184,
      "testing::test": 185,
      "sage": 186,
      "mes": 187,
      "get": 188,
      "se": 189,
      "11": 190,
      "cx": 191,
      "x11": 192,
      "cxx11": 193,
      "saver": 194,
      "test_": 195,
      "ro": 196,
      "save": 197,
      "fro": 198,
      "from": 199,
      "_alloc": 200,
      "std::__invoke_": 201,
      "hexceptionsinmethodifsupported<>()  ": 202,
      "testing::internal::handleexceptionsinmethodifsupported<>()  ": 203,
      "testing::internal::handlese": 204,
      "testing::internal::handlesehexceptionsinmethodifsupported<>()  ": 205,
      "init": 206,
      "allocat": 207,
      "allocations": 208,
      "gen": 209,
      "call": 210,
      "once": 211,
      "w_alloc": 212,
      "fa": 213,
      "ze": 214,
      "basic_": 215,
      "testing::internal::unittest": 216,
      "ne": 217,
      "ea": 218,
      "allocationsi": 219,
      "tcmalloc_internal::": 220,
      "tcmalloc::tcmalloc_internal::": 221,
      "lo": 222,
      "ts": 223,
      "lize": 224,
      "testing::internal::unittestimpl::": 225,
      "w()  ": 226,
      "ate()  ": 227,
      "_s": 228,
      "ymbo": 229,
      "can": 230,
      "slo": 231,
      "testat": 232,
      "allocationsitestat": 233,
      "tcmalloc::tcmalloc_internal::slo": 234,
      "tsymbo": 235,
      "lize  ": 236,
      "cantsymbo": 237,
      "allocationsitestats": 238,
      "tcmalloc::tcmalloc_internal::slow_alloc": 239,
      "cantsymbolize  ": 240,
      "_start": 241,
      "for": 242,
      "bc_": 243,
      "main  ": 244,
      "__li": 245,
      "_main  ": 246,
      "start_main  ": 247,
      "_start  ": 248,
      "bc_start_main  ": 249,
      "__libc_start_main  ": 250,
      "mall": 251,
      "_small": 252,
      "basic_string": 253,
      "tcmalloc::tcmalloc_internal::slow_alloc_small": 254,
      "tcmalloc::tcmalloc_internal::slow_alloc_small<>()  ": 255,
      "test()  ": 256,
      "::basic_string": 257,
      "std::__cxx11": 258,
      "std::__cxx11::basic_string": 259,
      " ne": 260,
      "operator ne": 261,
      "operator new()  ": 262,
      "d()  ": 263,
      "<>::_m": 264,
      "std::__invoke_impl<>()  ": 265,
      "to": 266,
      "ace": 267,
      "::allocationsitestats": 268,
      "ve": 269,
      "tests()  ": 270,
      "ctor": 271,
      "message": 272,
      "run_": 273,
      "testing::unittest": 274,
      "all_test": 275,
      "run_all_test": 276,
      "testing::unittest::run()  ": 277,
      "run_all_tests()  ": 278,
      "::allocationsitestatstest_": 279,
      "base": 280,
      "ru": 281,
      "nall": 282,
      "testing::internal::unittestimpl::ru": 283,
      "nalltests()  ": 284,
      "testing::internal::unittestimpl::runalltests()  ": 285,
      "ou": 286,
      "strea": 287,
      "stream": 288,
      "init()  ": 289,
      "fun": 290,
      "ction": 291,
      "function": 292,
      "de": 293,
      "ten": 294,
      "usage": 295,
      "cusage": 296,
      "basicusage": 297,
      "::allocationsitestatstest_basicusage": 298,
      "::allocationsitestatstest_basicusage_test": 299,
      "gi": 300,
      "stry": 301,
      "gistry": 302,
      "()()  ": 303,
      "impl::save": 304,
      "absl::lts_20250814::flags_internal::flagsaver": 305,
      "registry": 306,
      "operator()()  ": 307,
      "fromregistry": 308,
      "impl::savefromregistry": 309,
      "absl::lts_20250814::flags_internal::flagsaverimpl::savefromregistry": 310,
      "ult": 311,
      "state()  ": 312,
      "savestate()  ": 313,
      "<>::_m_": 314,
      "lflag": 315,
      "ite": 316,
      "tes": 317,
      "testing::message": 318,
      "testing::message::": 319,
      "ol": 320,
      " na": 321,
      "(an": 322,
      "pace": 323,
      "s na": 324,
      "onym": 325,
      "mespace": 326,
      "ous na": 327,
      "(anonym": 328,
      "mespace)": 329,
      "ous namespace)": 330,
      "(anonymous namespace)": 331,
      "env": 332,
      "rea": 333,
      "fault": 334,
      "default": 335,
      "_once": 336,
      "dat": 337,
      "gtest_": 338,
      "uar": 339,
      "aguar": 340,
      "abslflag": 341,
      "absl::lts_20250814::call": 342,
      "absl::lts_20250814::base": 343,
      "std::invoke": 344,
      "absl::lts_20250814::flags_internal::flagimpl::init()  ": 345,
      "absl::lts_20250814::flags_internal::flagimpl::dat": 346,
      "std::__invoke<>()  ": 347,
      "_internal::call": 348,
      "gen()  ": 349,
      "genfor": 350,
      "onceimpl<>()  ": 351,
      "defaultgenfor": 352,
      "_once<>()  ": 353,
      "aguard()  ": 354,
      "abslflagdefaultgenfor": 355,
      "absl::lts_20250814::call_once<>()  ": 356,
      "absl::lts_20250814::base_internal::call": 357,
      "std::invoke<>()  ": 358,
      "absl::lts_20250814::flags_internal::flagimpl::dataguard()  ": 359,
      "abslflagdefaultgenforgtest_": 360,
      "absl::lts_20250814::base_internal::callonceimpl<>()  ": 361,
      "testen": 362,
      "var": 363,
      "gtesten": 364,
      "v()  ": 365,
      "flagto": 366,
      "testing::internal::flagto": 367,
      "fromgtesten": 368,
      "envvar": 369,
      "testing::internal::flagtoenvvar": 370,
      "fromgtestenv()  ": 371,
      "testing::internal::flagtoenvvar()  ": 372,
      "tcmalloc::(anonymous namespace)": 373,
      "ut": 374,
      "bool": 375,
      "pr": 376,
      "suite": 377,
      "absl::lts_20250814::flags_internal::flagimpl::rea": 378,
      "testing::testsuite": 379,
      "testing::testsuite::run()  ": 380,
      "std::_": 381,
      "fo": 382,
      "info": 383,
      "testing::testinfo": 384,
      "testing::testinfo::run()  ": 385,
      "ch": 386,
      "::gen()  ": 387,
      "oo": 388,
      "gle": 389,
      "goo": 390,
      "google": 391,
      "vector": 392,
      "ser": 393,
      "initgoogle": 394,
      "cre": 395,
      "create": 396,
      ":cxx11": 397,
      "[ab": 398,
      "]()  ": 399,
      "i:cxx11": 400,
      "[abi:cxx11": 401,
      "[abi:cxx11]()  ": 402,
      "testing::internal::string": 403,
      "yimpl": 404,
      "er::": 405,
      "tcmalloc::(anonymous namespace)::allocationsitestatstest_basicusage_test": 406,
      "testing::internal::bool": 407,
      "testing::internal::boolfromgtestenv()  ": 408,
      "_hand": 409,
      "ler": 410,
      "_handler": 411,
      "testfa": 412,
      "testing::internal::testfa": 413,
      "<>::create": 414,
      "ctoryimpl": 415,
      "testing::internal::testfactoryimpl": 416,
      "<>::createtest()  ": 417,
      "testing::internal::testfactoryimpl<>::createtest()  ": 418,
      "ac": 419,
      "pe": 420,
      "::test()  ": 421,
      "testing::test::test()  ": 422,
      "am": 423,
      "fi": 424,
      "::flag": 425,
      "absl::lts_20250814::flagsaver": 426,
      "saver()  ": 427,
      "::flagsaver()  ": 428,
      "absl::lts_20250814::flagsaver::flagsaver()  ": 429,
      "std::__cxx11::basic_string<>::": 430,
      "#1": 431,
      "a()": 432,
      "bd": 433,
      "lam": 434,
      "r<>()  ": 435,
      "{lam": 436,
      "}::": 437,
      "::{lam": 438,
      "()::{lam": 439,
      "flag()  ": 440,
      "std::function": 441,
      "absl::lts_20250814::flags_internal::for": 442,
      "invoke()  ": 443,
      "<>::operator()()  ": 444,
      "std::__invoke_r<>()  ": 445,
      "each": 446,
      "function_handler": 447,
      "absl::lts_20250814::flags_internal::flagsaverimpl::savefromregistry()  ": 448,
      "absl::lts_20250814::flags_internal::flagsaverimpl::savefromregistry()::{lam": 449,
      "<>::_m_invoke()  ": 450,
      "std::_function_handler": 451,
      "#1}::": 452,
      "a()#1}::": 453,
      "bda()#1}::": 454,
      "std::function<>::operator()()  ": 455,
      "absl::lts_20250814::flags_internal::foreach": 456,
      "absl::lts_20250814::flags_internal::flagsaverimpl::savefromregistry()::{lambda()#1}::": 457,
      "std::_function_handler<>::_m_invoke()  ": 458,
      "absl::lts_20250814::flags_internal::foreachflag()  ": 459,
      "absl::lts_20250814::flags_internal::flagsaverimpl::savefromregistry()::{lambda()#1}::operator()()  ": 460,
      "iv": 461,
      "ss": 462,
      "::savestate()  ": 463,
      "or::savestate()  ": 464,
      "cess": 465,
      "absl::lts_20250814::flags_internal::pr": 466,
      "handleac": 467,
      "absl::lts_20250814::flags_internal::flagimpl::savestate()  ": 468,
      "atehandleac": 469,
      "ivatehandleac": 470,
      "cessor::savestate()  ": 471,
      "absl::lts_20250814::flags_internal::privatehandleac": 472,
      "absl::lts_20250814::flags_internal::privatehandleaccessor::savestate()  ": 473,
      "<>::get": 474,
      "<>::get()  ": 475,
      "reser": 476,
      "ve()  ": 477,
      "reserve()  ": 478,
      "flag<>()  ": 479,
      "absl::lts_20250814::get": 480,
      "absl::lts_20250814::flags_internal::flagimpl": 481,
      "absl::lts_20250814::flags_internal::flag<>::get()  ": 482,
      "invokeget": 483,
      "er::invokeget": 484,
      "peer::invokeget": 485,
      "absl::lts_20250814::getflag<>()  ": 486,
      "absl::lts_20250814::flags_internal::flagimplpeer::invokeget": 487,
      "absl::lts_20250814::flags_internal::flagimplpeer::invokeget<>()  ": 488,
      "::allocationsitestatstest_basicusage_test()  ": 489,
      "tcmalloc::(anonymous namespace)::allocationsitestatstest_basicusage_test::allocationsitestatstest_basicusage_test()  ": 490,
      "string()  ": 491,
      "std::__cxx11::basic_string<>::reserve()  ": 492,
      "put": 493,
      "string[abi:cxx11]()  ": 494,
      "getstring[abi:cxx11]()  ": 495,
      "tostring()  ": 496,
      "streamtostring()  ": 497,
      "testing::message::getstring[abi:cxx11]()  ": 498,
      "testing::internal::stringstreamtostring()  ": 499,
      "absl::lts_20250814::flags_internal::flagimpl::read()  ": 500,
      "one": 501,
      "uf": 502,
      " <>()  ": 503,
      "<<": 504,
      "par": 505,
      "operator<<": 506,
      "operator<< <>()  ": 507,
      "std::vector": 508,
      "buf": 509,
      "testimpl<>()  ": 510,
      "testing::initgoogle": 511,
      "testing::internal::initgoogle": 512,
      "testing::initgoogletest()  ": 513,
      "testing::internal::initgoogletestimpl<>()  ": 514,
      "std::__cxx11::basic_string<>::_m_": 515,
      "done": 516,
      "absl::lts_20250814::flags_internal::flagimpl::readone": 517,
      "lace": 518,
      "int": 519,
      "message()  ": 520,
      "y()  ": 521,
      "testing::message::message()  ": 522,
      "rep": 523,
      "buf<>::": 524,
      "_base": 525,
      "vector_base": 526,
      "con": 527,
      "po": 528,
      "lter": 529,
      "filter": 530,
      "bool()  ": 531,
      "absl::lts_20250814::flags_internal::flagimpl::readonebool()  ": 532,
      "std::vector<>::": 533,
      "std::_vector_base": 534,
      "replace": 535,
      "ure": 536,
      "_mut": 537,
      "std::__cxx11::basic_string<>::_m": 538,
      "_mutate()  ": 539,
      "std::__cxx11::basic_string<>::_m_mutate()  ": 540,
      "l_": 541,
      "fai": 542,
      "put()  ": 543,
      "std::__cxx11::basic_string<>::_m_replace": 544,
      "sing": 545,
      "stflag": 546,
      "testing::internal::unittestimpl::po": 547,
      "parsing": 548,
      "stflagparsing": 549,
      "testing::internal::unittestimpl::postflagparsing": 550,
      "testing::internal::unittestimpl::postflagparsinginit()  ": 551,
      "bod": 552,
      "::test": 553,
      "testing::test::run()  ": 554,
      "body()  ": 555,
      "::testbody()  ": 556,
      "t<>()  ": 557,
      "ma": 558,
      "stream<>::": 559,
      "allocate()  ": 560,
      "std::__ne": 561,
      "<>::allocate()  ": 562,
      "ator<>::allocate()  ": 563,
      "w_allocator<>::allocate()  ": 564,
      "std::__new_allocator<>::allocate()  ": 565,
      "ov": 566,
      "flo": 567,
      "erflo": 568,
      "overflo": 569,
      "print": 570,
      "_in": 571,
      "sert<>()  ": 572,
      "_insert<>()  ": 573,
      "std::__cxx11::basic_string<>::_m_replace()  ": 574,
      "ostream": 575,
      "sion": 576,
      "std::operator<< <>()  ": 577,
      "mallocex": 578,
      "std::__cxx11::basic_stringbuf<>::": 579,
      "tension": 580,
      "testing::message::operator<< <>()  ": 581,
      "overflow()  ": 582,
      "mallocextension": 583,
      "std::__cxx11::basic_stringbuf<>::overflow()  ": 584,
      "str()  ": 585,
      "std::__cxx11::basic_stringstream<>::": 586,
      "std::__cxx11::basic_stringstream<>::str()  ": 587,
      "<>::_m_alloc": 588,
      "testing::internal::stringfromgtestenv()  ": 589,
      "ele": 590,
      "ning": 591,
      "inele": 592,
      "arning": 593,
      "out": 594,
      "chinele": 595,
      "machinele": 596,
      "machinelearning": 597,
      "std::_vector_base<>::_m_alloc": 598,
      "std::_vector_base<>::_m_allocate()  ": 599,
      "::get": 600,
      "_ba": 601,
      "ck": 602,
      "_back": 603,
      "_interna": 604,
      "_internal_": 605,
      "_fai": 606,
      "lure": 607,
      "son": 608,
      "allocationsitestats  ": 609,
      "parse": 610,
      "_internal_get": 611,
      "_failure": 612,
      "sonl": 613,
      "_test_": 614,
      "std::basic_": 615,
      "ation": 616,
      "testing::internal::unittestimpl::con": 617,
      "fig": 618,
      "file": 619,
      "testing::internal::unittestimpl::config": 620,
      "mat": 621,
      "sh": 622,
      "testing::internal::unittestimpl::filter": 623,
      "testing::internal::unittestimpl::filtertests()  ": 624,
      "o_": 625,
      "uct": 626,
      "struct": 627,
      "construct": 628,
      "2fromgtestenv()  ": 629,
      "32fromgtestenv()  ": 630,
      "testing::internal::int": 631,
      "testing::internal::int32fromgtestenv()  ": 632,
      "ath": 633,
      "ip": 634,
      "test_m": 635,
      "leallocations": 636,
      "sames": 637,
      "ent": 638,
      "::allocationsitestatstest_m": 639,
      "ultip": 640,
      "ite_test": 641,
      "leallocationssames": 642,
      "::allocationsitestatstest_multip": 643,
      "leallocationssamesite_test": 644,
      "::allocationsitestatstest_multipleallocationssamesite_test": 645,
      "cop": 646,
      "_t": 647,
      "output": 648,
      "sult": 649,
      "result": 650,
      "cor": 651,
      "cord": 652,
      "fer": 653,
      "::on": 654,
      "std::vector<>::_m_": 655,
      "unittestfilter": 656,
      "tcmalloc::(anonymous namespace)::allocationsitestatstest_basicusage_test::testbody()  ": 657,
      "sput": 658,
      "xsput": 659,
      "construct<>()  ": 660,
      "xsputn": 661,
      "ecord": 662,
      "terecord": 663,
      "malloc  ": 664,
      "allocationsiterecord": 665,
      "tcmalloc::tcmalloc_internal::allocationsiterecord": 666,
      "tcmalloc::tcmalloc_internal::allocationsiterecorder::": 667,
      "_on": 668,
      "ei": 669,
      "ive": 670,
      "th": 671,
      "testi": 672,
      "absei": 673,
      "d::gen()  ": 674,
      "start()  ": 675,
      "lflagsonl": 676,
      "abslflagdefaultgenforgtest_print": 677,
      "tcmalloc::(anonymous namespace)::": 678,
      "parseabsei": 679,
      "_failure::gen()  ": 680,
      "_on_failure::gen()  ": 681,
      "parseabseilflagsonl": 682,
      "death": 683,
      "abslflagdefaultgenforgtest_death": 684,
      "abslflagdefaultgenforgtest_death_test_": 685,
      "stat": 686,
      "stats()  ": 687,
      "alloc_insert<>()  ": 688,
      "realloc_insert<>()  ": 689,
      "std::vector<>::_m_realloc_insert<>()  ": 690,
      "std::__ostream": 691,
      "streambuf<>::": 692,
      "std::__cxx11::basic_string<>::_m_construct<>()  ": 693,
      "std::basic_streambuf<>::": 694,
      "xsputn()  ": 695,
      "std::__ostream_insert<>()  ": 696,
      "std::basic_streambuf<>::xsputn()  ": 697,
      "tcmalloc::mallocextension": 698,
      "allocationsitestats[abi:cxx11]()  ": 699,
      "mallocextension_internal_get": 700,
      "tcmalloc::mallocextension::get": 701,
      "mlo": 702,
      "rex": 703,
      "urex": 704,
      "::put()  ": 705,
      "teration": 706,
      "std::ostream": 707,
      "tcmalloc::(anonymous namespace)::allocationsitestatstest_": 708,
      "utput()  ": 709,
      "create_": 710,
      "testing::internal::unittestimpl::configurex": 711,
      "::ontesti": 712,
      "mloutput()  ": 713,
      "terationstart()  ": 714,
      "std::ostream::put()  ": 715,
      "testing::internal::unittestimpl::configurexmloutput()  ": 716,
      "::ontestiterationstart()  ": 717,
      "dif": 718,
      "ize": 719,
      "ents": 720,
      "tcmalloc::(anonymous namespace)::allocationsitestatstest_multipleallocationssamesite_test": 721,
      "ferents": 722,
      "differents": 723,
      "izes_": 724,
      "differentsizes_": 725,
      "copy": 726,
      "emp": 727,
      "lace_back": 728,
      "std::vector<>::emp": 729,
      "lace_back<>()  ": 730,
      "std::vector<>::emplace_back<>()  ": 731,
      "col": 732,
      "able": 733,
      "format": 734,
      "color": 735,
      "pu": 736,
      "std::vector<>::pu": 737,
      "_back()  ": 738,
      "sh_back()  ": 739,
      "std::vector<>::push_back()  ": 740,
      "no": 741,
      "options": 742,
      "use": 743,
      "wor": 744,
      "allocate": 745,
      "repe": 746,
      "testing::internal::unittestoptions": 747,
      "abslflagdefaultgenforgtest_b": 748,
      "abslflagdefaultgenforgtest_fai": 749,
      "absl::lts_20250814::flags_internal::flagimpl::read<>()  ": 750,
      "absl::lts_20250814::flags_internal::flagimpl::readonewor": 751,
      "repeat": 752,
      "testing::internal::unittestoptions::get": 753,
      "abslflagdefaultgenforgtest_fail_": 754,
      "absl::lts_20250814::flags_internal::flagimpl::readoneword()  ": 755,
      "vent": 756,
      "tevent": 757,
      "testevent": 758,
      "(anonymous namespace)::": 759,
      "al": 760,
      "alize": 761,
      "ed": 762,
      "ialize": 763,
      "arg": 764,
      "initialize": 765,
      "unittestresult": 766,
      "printer": 767,
      "std::__cxx11::basic_string<>::basic_string": 768,
      "unittestresultprinter": 769,
      "_i": 770,
      "machinelearningallocationsitestats  ": 771,
      "_io_": 772,
      "_copy": 773,
      "e<>()  ": 774,
      "fromfunction": 775,
      "machinelearningstats()  ": 776,
      "tcmalloc::(anonymous namespace)::allocate": 777,
      "tcmalloc::(anonymous namespace)::allocatefromfunction": 778,
      "let": 779,
      "ostring": 780,
      "ablet": 781,
      "testing::internal::stream": 782,
      "testing::internal::testevent": 783,
      "eater": 784,
      "repeater": 785,
      "tcmalloc::(anonymous namespace)::allocationsitestatstest_differentsizes_": 786,
      "ostring<>()  ": 787,
      "abletostring<>()  ": 788,
      "testing::internal::streamabletostring<>()  ": 789,
      "testing::internal::testeventrepeater": 790,
      "tcmalloc::(anonymous namespace)::allocationsitestatstest_differentsizes_test": 791,
      "testing::internal::(anonymous namespace)::": 792,
      "unittestfilter::": 793,
      "tcmalloc_internal_get": 794,
      "tcmalloc::tcmalloc_internal::allocationsiterecorder::print": 795,
      "std::__cxx11::basic_string<>::basic_string<>()  ": 796,
      "cat": 797,
      "k_t": 798,
      "race": 799,
      "stac": 800,
      "pth": 801,
      "row": 802,
      "pos": 803,
      "std::vector<>::vector": 804,
      "throw": 805,
      "als": 806,
      "k_trace": 807,
      "stack_trace": 808,
      "stack_trace_": 809,
      "ty": 810,
      "testing::internal::pr": 811,
      "etty": 812,
      "testing::internal::pretty": 813,
      "testing::internal::prettyunittestresultprinter": 814,
      "s<>()  ": 815,
      "absl::lts_20250814::flags_internal::flagop": 816,
      "absl::lts_20250814::flags_internal::flagops<>()  ": 817,
      "up": 818,
      "8::gen()  ": 819,
      "_exceptions": 820,
      "_se": 821,
      "_for": 822,
      "_to": 823,
      "_ut": 824,
      "_result": 825,
      "_no": 826,
      "_repeat": 827,
      "di": 828,
      "d_test": 829,
      "ed::gen()  ": 830,
      "f8::gen()  ": 831,
      "gna": 832,
      "gat": 833,
      "hen": 834,
      "ir": 835,
      "ime": 836,
      "igna": 837,
      "k::gen()  ": 838,
      "k_on_failure::gen()  ": 839,
      "lin": 840,
      "l_handler": 841,
      "ment": 842,
      "m_se": 843,
      "om_se": 844,
      "rand": 845,
      "s::gen()  ": 846,
      "sable": 847,
      "when": 848,
      "inst": 849,
      "testflag": 850,
      "ingout": 851,
      "s_when": 852,
      "ing::gen()  ": 853,
      "all_failure": 854,
      "onment": 855,
      "absl::lts_20250814::parseabseilflagsonl": 856,
      "testing::internal::parse": 857,
      "absl::lts_20250814::flags_internal::parseabseilflagsonl": 858,
      "itive": 859,
      "andne": 860,
      "ked::gen()  ": 861,
      "recreate_": 862,
      "if_no": 863,
      "open": 864,
      "_signa": 865,
      "run_di": 866,
      "stream_result": 867,
      "streamingout": 868,
      "depth": 869,
      "envir": 870,
      "reak_on_failure::gen()  ": 871,
      "abslflagdefaultgenforgtest_cat": 872,
      "abslflagdefaultgenforgtest_throw": 873,
      "abslflagdefaultgenforgtest_als": 874,
      "abslflagdefaultgenforgtest_stack_trace_": 875,
      "abslflagdefaultgenforgtest_rand": 876,
      "abslflagdefaultgenforgtest_inst": 877,
      "abslflagdefaultgenforgtest_recreate_": 878,
      "abslflagdefaultgenforgtest_stream_result": 879,
      "ch_exceptions": 880,
      "googletestflag": 881,
      "yimpl()  ": 882,
      "urestreamingout": 883,
      "sonly()  ": 884,
      "_test_lin": 885,
      "testing::internal::unittestimpl::configurestreamingout": 886,
      "o_run_di": 887,
      "_time": 888,
      "outputformat": 889,
      "abslflagdefaultgenforgtest_print_ut": 890,
      "abslflagdefaultgenforgtest_print_time": 891,
      "abslflagdefaultgenforgtest_death_test_use": 892,
      "mallocextension_internal_getallocationsitestats  ": 893,
      "tcmalloc::mallocextension::getallocationsitestats[abi:cxx11]()  ": 894,
      "abslflagdefaultgenforgtest_break_on_failure::gen()  ": 895,
      "testing::internal::unittestoptions::getoutputformat": 896,
      "abslflagdefaultgenforgtest_fail_if_no": 897,
      "positive": 898,
      "_fork::gen()  ": 899,
      "_to::gen()  ": 900,
      "_repeating::gen()  ": 901,
      "d_tests::gen()  ": 902,
      "gative": 903,
      "l_handler::gen()  ": 904,
      "om_seed::gen()  ": 905,
      "sabled_tests::gen()  ": 906,
      "s_when_repeating::gen()  ": 907,
      "all_failure_signa": 908,
      "onments_when_repeating::gen()  ": 909,
      "absl::lts_20250814::parseabseilflagsonly()  ": 910,
      "testing::internal::parsegoogletestflag": 911,
      "absl::lts_20250814::flags_internal::parseabseilflagsonlyimpl()  ": 912,
      "andnegative": 913,
      "depth::gen()  ": 914,
      "environments_when_repeating::gen()  ": 915,
      "abslflagdefaultgenforgtest_catch_exceptions": 916,
      "abslflagdefaultgenforgtest_throw_on_failure::gen()  ": 917,
      "abslflagdefaultgenforgtest_also_run_di": 918,
      "abslflagdefaultgenforgtest_stack_trace_depth::gen()  ": 919,
      "abslflagdefaultgenforgtest_random_seed::gen()  ": 920,
      "abslflagdefaultgenforgtest_install_failure_signa": 921,
      "abslflagdefaultgenforgtest_recreate_environments_when_repeating::gen()  ": 922,
      "abslflagdefaultgenforgtest_stream_result_to::gen()  ": 923,
      "_test_linked::gen()  ": 924,
      "testing::internal::unittestimpl::configurestreamingoutput()  ": 925,
      "abslflagdefaultgenforgtest_print_utf8::gen()  ": 926,
      "abslflagdefaultgenforgtest_print_time::gen()  ": 927,
      "abslflagdefaultgenforgtest_death_test_use_fork::gen()  ": 928,
      "testing::internal::unittestoptions::getoutputformat[abi:cxx11]()  ": 929,
      "abslflagdefaultgenforgtest_fail_if_no_test_linked::gen()  ": 930,
      "positiveandnegative": 931,
      "testing::internal::parsegoogletestflagsonly()  ": 932,
      "abslflagdefaultgenforgtest_catch_exceptions::gen()  ": 933,
      "abslflagdefaultgenforgtest_also_run_disabled_tests::gen()  ": 934,
      "abslflagdefaultgenforgtest_install_failure_signal_handler::gen()  ": 935,
      "yle": 936,
      "style": 937,
      "abslflagdefaultgenforgtest_death_test_style": 938,
      "abslflagdefaultgenforgtest_death_test_style::gen()  ": 939,
      "tcmalloc::(anonymous namespace)::allocationsitestatstest_multipleallocationssamesite_test::testbody()  ": 940,
      "unittestfilter()  ": 941,
      "cl": 942,
      "absl::lts_20250814::flags_internal::cl": 943,
      "one()  ": 944,
      "absl::lts_20250814::flags_internal::clone()  ": 945,
      "dup": 946,
      "_a": 947,
      "rite": 948,
      "write": 949,
      "<>::_": 950,
      "threa": 951,
      "testing::internal::testeventrepeater::ontestiterationstart()  ": 952,
      "std::vector<>::vector()  ": 953,
      "testing::internal::prettyunittestresultprinter::ontestiterationstart()  ": 954,
      "testing::internal::s": 955,
      "machinelearningallocationsitestats[abi:cxx11]()  ": 956,
      "mallocextension_internal_getmachinelearningallocationsitestats  ": 957,
      "tcmalloc::mallocextension::getmachinelearningallocationsitestats[abi:cxx11]()  ": 958,
      "cation": 959,
      "lication": 960,
      "dedup": 961,
      "lication_test": 962,
      "deduplication_test": 963,
      "d_copy": 964,
      "of": 965,
      "pre": 966,
      "stor": 967,
      "uninitialize": 968,
      "itfile": 969,
      "exitfile": 970,
      "age()  ": 971,
      "<>::_m_create_": 972,
      "abslflagdefaultgenforgtest_output": 973,
      "vector_base()  ": 974,
      "std::_vector_base<>::_": 975,
      "std::_vector_base<>::_m_create_": 976,
      "ureexitfile": 977,
      "file_": 978,
      "matureexitfile": 979,
      "::allocationsitestatstest_multipleallocationssamesite_test()  ": 980,
      "coped": 981,
      "tcmalloc::(anonymous namespace)::write": 982,
      "tcmalloc::(anonymous namespace)::allocationsitestatstest_multipleallocationssamesite_test::allocationsitestatstest_multipleallocationssamesite_test()  ": 983,
      "_io_file_": 984,
      "prematureexitfile": 985,
      "storage()  ": 986,
      "uninitialized_copy": 987,
      "abslflagdefaultgenforgtest_output::gen()  ": 988,
      "std::_vector_base<>::_vector_base()  ": 989,
      "std::_vector_base<>::_m_create_storage()  ": 990,
      "copedprematureexitfile": 991,
      "tcmalloc::(anonymous namespace)::writemachinelearningstats()  ": 992,
      "tcmalloc::(anonymous namespace)::allocationsitestatstest_differentsizes_test::testbody()  ": 993,
      "app": 994,
      "end()  ": 995,
      "tcmalloc_internal_getallocationsitestats  ": 996,
      "tcmalloc::tcmalloc_internal::allocationsiterecorder::printstats()  ": 997,
      "open()  ": 998,
      "append()  ": 999,
      "+<>()  ": 1000,
      "_l": 1001,
      "_un": 1002,
      "co": 1003,
      "f()  ": 1004,
      "iq": 1005,
      "ux": 1006,
      "ue<>()  ": 1007,
      "tes()  ": 1008,
      "testing::format": 1009,
      "testing::internal::color": 1010,
      "alloc()  ": 1011,
      "unt": 1012,
      "std::operator": 1013,
      "std::ma": 1014,
      "absl::lts_20250814::flags_internal::alloc()  ": 1015,
      "ke_un": 1016,
      "getallocationsi": 1017,
      "tcmalloc::tcmalloc_internal::slow_alloc_l": 1018,
      "std::__cxx11::basic_string<>::_m_replace_a": 1019,
      "printf()  ": 1020,
      "tcmalloc::tcmalloc_internal::allocationsiterecorder::getallocationsi": 1021,
      "edprintf()  ": 1022,
      "arge<>()  ": 1023,
      "testing::internal::(anonymous namespace)::positiveandnegative": 1024,
      "count": 1025,
      "ique<>()  ": 1026,
      "ux()  ": 1027,
      "testing::internal::coloredprintf()  ": 1028,
      "std::operator+<>()  ": 1029,
      "std::make_un": 1030,
      "tcmalloc::tcmalloc_internal::slow_alloc_large<>()  ": 1031,
      "std::__cxx11::basic_string<>::_m_replace_aux()  ": 1032,
      "tcmalloc::tcmalloc_internal::allocationsiterecorder::getallocationsites()  ": 1033,
      "testing::internal::(anonymous namespace)::positiveandnegativeunittestfilter::": 1034,
      "std::make_unique<>()  ": 1035,
      "set": 1036,
      "testing::internal::(anonymous namespace)::unittestfilter::": 1037,
      "testing::internal::(anonymous namespace)::unittestfilter::unittestfilter()  ": 1038,
      "buffer": 1039,
      "std::basic_file": 1040,
      "std::vector<>::reserve()  ": 1041,
      "tcmalloc::(anonymous namespace)::allocationsitestatstest_deduplication_test": 1042,
      "1()  ": 1043,
      "3()  ": 1044,
      "do": 1045,
      "duse": 1046,
      "ef": 1047,
      "e::gen()  ": 1048,
      "ief": 1049,
      "lduse": 1050,
      "path": 1051,
      "rief": 1052,
      "sli": 1053,
      "ute": 1054,
      "st::gen()  ": 1055,
      "fle::gen()  ": 1056,
      "absol": 1057,
      "absl::lts_20250814::str": 1058,
      "testing::internal::sh": 1059,
      "uninit": 1060,
      "std::__uninitialized_copy": 1061,
      "fast::gen()  ": 1062,
      "tooutput": 1063,
      "::allocationsitestatstest_differentsizes_": 1064,
      "oulduse": 1065,
      "abslflagdefaultgenforgtest_filter": 1066,
      "abslflagdefaultgenforgtest_sh": 1067,
      "abslflagdefaultgenforgtest_color": 1068,
      "abslflagdefaultgenforgtest_repeat": 1069,
      "uffle::gen()  ": 1070,
      "replaceall": 1071,
      "file[abi:cxx11]()  ": 1072,
      "color()  ": 1073,
      "abslflagdefaultgenforgtest_brief": 1074,
      "testing::internal::unittestoptions::getabsol": 1075,
      "abslflagdefaultgenforgtest_fail_fast::gen()  ": 1076,
      "argsli": 1077,
      "_copy<>()  ": 1078,
      "tcmalloc::(anonymous namespace)::allocatefromfunction1()  ": 1079,
      "tcmalloc::(anonymous namespace)::allocatefromfunction3()  ": 1080,
      "tcmalloc::(anonymous namespace)::allocationsitestatstest_differentsizes_test::allocationsitestatstest_differentsizes_": 1081,
      "tcmalloc_internal_getmachinelearningallocationsitestats  ": 1082,
      "tcmalloc::tcmalloc_internal::allocationsiterecorder::printmachinelearningstats()  ": 1083,
      "thread<>()  ": 1084,
      "pathtooutput": 1085,
      "utepathtooutput": 1086,
      "absl::lts_20250814::strreplaceall": 1087,
      "testing::internal::shoulduse": 1088,
      "uninit_copy<>()  ": 1089,
      "abslflagdefaultgenforgtest_filter::gen()  ": 1090,
      "abslflagdefaultgenforgtest_shuffle::gen()  ": 1091,
      "abslflagdefaultgenforgtest_color::gen()  ": 1092,
      "abslflagdefaultgenforgtest_repeat::gen()  ": 1093,
      "abslflagdefaultgenforgtest_brief::gen()  ": 1094,
      "testing::internal::unittestoptions::getabsolutepathtooutput": 1095,
      "argslist": 1096,
      "tcmalloc::(anonymous namespace)::allocationsitestatstest_differentsizes_test::allocationsitestatstest_differentsizes_test()  ": 1097,
      "testing::internal::shouldusecolor()  ": 1098,
      "testing::internal::unittestoptions::getabsolutepathtooutputfile[abi:cxx11]()  ": 1099,
      "gr": 1100,
      "lit": 1101,
      "pro": 1102,
      "plit": 1103,
      "testing::internal::split": 1104,
      "setpro": 1105,
      "gram": 1106,
      "testing::internal::splitstring()  ": 1107,
      "setprogram": 1108,
      "absl::lts_20250814::flags_internal::copy": 1109,
      "std::__cxx11::basic_string<>::_m_append()  ": 1110,
      "construct()  ": 1111,
      "absl::lts_20250814::flags_internal::copyconstruct()  ": 1112,
      "_buffer": 1113,
      "d_": 1114,
      "ml": 1115,
      "scopedprematureexitfile": 1116,
      "xml": 1117,
      "y_buffer": 1118,
      "::scopedprematureexitfile": 1119,
      "temp": 1120,
      "orar": 1121,
      "un()  ": 1122,
      "std::threa": 1123,
      "basic_of": 1124,
      "stream()  ": 1125,
      "buf<>::open()  ": 1126,
      "stream<>::basic_of": 1127,
      "std::basic_of": 1128,
      "ableno": 1129,
      "positiveandnegativeunittestfilter()  ": 1130,
      "testing::internal::scopedprematureexitfile": 1131,
      "testing::formatcount": 1132,
      "testing::internal::(anonymous namespace)::positiveandnegativeunittestfilter::positiveandnegativeunittestfilter()  ": 1133,
      "std::basic_filebuf<>::open()  ": 1134,
      "::scopedprematureexitfile()  ": 1135,
      "temporar": 1136,
      "std::thread::": 1137,
      "stream<>::basic_ofstream()  ": 1138,
      "std::basic_ofstream<>::basic_ofstream()  ": 1139,
      "ablenoun()  ": 1140,
      "testing::internal::scopedprematureexitfile::scopedprematureexitfile()  ": 1141,
      "testing::formatcountablenoun()  ": 1142,
      "temporary_buffer": 1143,
      "fopen": 1144,
      "_io_fopen": 1145,
      "_io_fopen  ": 1146,
      "tcmalloc::(anonymous namespace)::allocationsitestatstest_deduplication_test::testbody()  ": 1147,
      "_p": 1148,
      "_sa": 1149,
      "_initialize": 1150,
      "ase": 1151,
      "case": 1152,
      "do_": 1153,
      "es": 1154,
      "e<>::get()  ": 1155,
      "e_initialize": 1156,
      "fin": 1157,
      "gtesti": 1158,
      "ge_initialize": 1159,
      "hoo": 1160,
      "ks_": 1161,
      "ran": 1162,
      "s::": 1163,
      "sten": 1164,
      "s[abi:cxx11]()  ": 1165,
      "sinitialize": 1166,
      "ue<>::get()  ": 1167,
      "val": 1168,
      "vs[abi:cxx11]()  ": 1169,
      "w  ": 1170,
      "zer": 1171,
      "::argslist": 1172,
      "stable": 1173,
      "testcase": 1174,
      "name": 1175,
      "internal": 1176,
      "testing::testevent": 1177,
      "ort<>()  ": 1178,
      "or_p": 1179,
      "mple": 1180,
      "testing::internal::get": 1181,
      "testing::internal::gtesti": 1182,
      "ocation": 1183,
      "alloc_small": 1184,
      "allocbuf": 1185,
      "std::uninitialized_copy": 1186,
      "ion()  ": 1187,
      "erthread<>()  ": 1188,
      "ers::": 1189,
      "absl::lts_20250814::flags_internal::(anonymous namespace)::": 1190,
      "absl::lts_20250814::flags_internal::setprogram": 1191,
      "__uninit_copy<>()  ": 1192,
      "absl::lts_20250814::flags_internal::flagval": 1193,
      "invocation": 1194,
      "std::__do_": 1195,
      "<>::__uninit_copy<>()  ": 1196,
      "tcmallocinternal": 1197,
      "record": 1198,
      "listen": 1199,
      "lizer": 1200,
      "allocation()  ": 1201,
      "tcmalloc::tcmalloc_internal::alloc_small": 1202,
      "_sort<>()  ": 1203,
      "::allocationsitestatstest_deduplication_test": 1204,
      "std::_construct<>()  ": 1205,
      "ches": 1206,
      "overflow  ": 1207,
      "matches": 1208,
      "::ontestcase": 1209,
      "std::vector<>::_m_ran": 1210,
      "xsputn  ": 1211,
      "tcmalloc::tcmalloc_internal::allocationsiterecorder::record": 1212,
      "allocate  ": 1213,
      "argvs[abi:cxx11]()  ": 1214,
      "_io_do": 1215,
      "std::vector<>::vector<>()  ": 1216,
      "_a<>()  ": 1217,
      "_io_file_do": 1218,
      "_io_file_overflow  ": 1219,
      "_io_file_xsputn  ": 1220,
      "testing::formattest": 1221,
      "count()  ": 1222,
      "testing::internal::(anonymous namespace)::positiveandnegativeunittestfilter::matches": 1223,
      "tcmalloc::(anonymous namespace)::allocationsitestatstest_deduplication_test::allocationsitestatstest_deduplication_test": 1224,
      "std::__uninitialized_copy<>::__uninit_copy<>()  ": 1225,
      "std::__uninitialized_copy_a<>()  ": 1226,
      "absl::lts_20250814::strreplaceall<>()  ": 1227,
      "absl::lts_20250814::strreplaceall[abi:cxx11]()  ": 1228,
      "argslist::argslist": 1229,
      "d_hoo": 1230,
      "xmlunittestresultprinter": 1231,
      "std::thread::thread<>()  ": 1232,
      "_sample": 1233,
      "ge_initialize<>()  ": 1234,
      "ks_or_p": 1235,
      "sinitialized()  ": 1236,
      "stable_sort<>()  ": 1237,
      "name()  ": 1238,
      "testing::testeventlisten": 1239,
      "testing::internal::getargvs[abi:cxx11]()  ": 1240,
      "testing::internal::gtestisinitialized()  ": 1241,
      "allocbuf  ": 1242,
      "std::uninitialized_copy<>()  ": 1243,
      "absl::lts_20250814::flags_internal::(anonymous namespace)::argslist::argslist": 1244,
      "absl::lts_20250814::flags_internal::setprograminvocation": 1245,
      "absl::lts_20250814::flags_internal::flagvalue<>::get()  ": 1246,
      "std::__do_uninit_copy<>()  ": 1247,
      "tcmalloc::tcmalloc_internal::alloc_small_sample": 1248,
      "::ontestcasestart()  ": 1249,
      "std::vector<>::_m_range_initialize<>()  ": 1250,
      "tcmalloc::tcmalloc_internal::allocationsiterecorder::recordallocation()  ": 1251,
      "_io_doallocbuf  ": 1252,
      "_io_file_doallocate  ": 1253,
      "testing::internal::(anonymous namespace)::positiveandnegativeunittestfilter::matchestest()  ": 1254,
      "tcmalloc::(anonymous namespace)::allocationsitestatstest_deduplication_test::allocationsitestatstest_deduplication_test()  ": 1255,
      "d_hooks_or_p": 1256,
      "testing::testeventlisteners::": 1257,
      "absl::lts_20250814::flags_internal::(anonymous namespace)::argslist::argslist()  ": 1258,
      "absl::lts_20250814::flags_internal::setprograminvocationname()  ": 1259,
      "tcmalloc::tcmalloc_internal::alloc_small_sampled_hooks_or_p": 1260,
      "tcmalloc::tcmalloc_internal::alloc_small_sampled_hooks_or_perthread<>()  ": 1261,
      "absl::lts_20250814::setprogram": 1262,
      "usagemessage()  ": 1263,
      "std::__cxx11::basic_string<>::basic_string()  ": 1264,
      "absl::lts_20250814::setprogramusagemessage()  ": 1265,
      "std::__basic_": 1266,
      "<>::open()  ": 1267,
      "ate_internal_": 1268,
      "testend()  ": 1269,
      "buf<>::_m_alloc": 1270,
      "file<>::open()  ": 1271,
      "::ontestend()  ": 1272,
      "buffer()  ": 1273,
      "std::basic_filebuf<>::_m_alloc": 1274,
      "std::__basic_file<>::open()  ": 1275,
      "ate_internal_buffer()  ": 1276,
      "std::basic_filebuf<>::_m_allocate_internal_buffer()  ": 1277,
      "2()  ": 1278,
      "4()  ": 1279,
      "_d": 1280,
      "_con": 1281,
      "_temporary_buffer": 1282,
      "av": 1283,
      "alizer": 1284,
      "bst": 1285,
      "calloc": 1286,
      "cke": 1287,
      "dsu": 1288,
      "egistry": 1289,
      "ecke": 1290,
      "fwrite": 1291,
      "fopen()  ": 1292,
      "gtest()  ": 1293,
      "hrea": 1294,
      "hecke": 1295,
      "ix": 1296,
      "ls": 1297,
      "l_alloc": 1298,
      "nv": 1299,
      "os_": 1300,
      "symbo": 1301,
      "wno": 1302,
      "::up": 1303,
      "::append()  ": 1304,
      "::xmlunittestresultprinter": 1305,
      "::fopen()  ": 1306,
      "ter()  ": 1307,
      "inggtest()  ": 1308,
      "flagals": 1309,
      "onle": 1310,
      "absl::lts_20250814::string": 1311,
      "absl::lts_20250814::initialize": 1312,
      "testing::internal::output": 1313,
      "testing::internal::pos": 1314,
      "testing::internal::xmlunittestresultprinter": 1315,
      "ochecke": 1316,
      "std::get": 1317,
      "std::stable_sort<>()  ": 1318,
      "s_internal::fin": 1319,
      "absl::lts_20250814::flags_internal::fin": 1320,
      "ions<>()  ": 1321,
      "strdup": 1322,
      "str_con": 1323,
      "itut": 1324,
      "std::__stable_sort<>()  ": 1325,
      "std::__str_con": 1326,
      "_m_start": 1327,
      "erator()  ": 1328,
      "ate_t": 1329,
      "getter()  ": 1330,
      "generator()  ": 1331,
      "newno": 1332,
      "testing::internal::unittestimpl::os_": 1333,
      "testing::unittest::up": 1334,
      "read_": 1335,
      "defaultxml": 1336,
      "var[abi:cxx11]()  ": 1337,
      "suitecount()  ": 1338,
      "std::_temporary_buffer": 1339,
      "create  ": 1340,
      "_threa": 1341,
      "tcmalloc::(anonymous namespace)::allocatefromfunction2()  ": 1342,
      "tcmalloc::(anonymous namespace)::allocatefromfunction4()  ": 1343,
      "testing::internal::testeventrepeater::ontestcasestart()  ": 1344,
      "testing::internal::testeventrepeater::append()  ": 1345,
      "cat<>()  ": 1346,
      "pthread_": 1347,
      "throw  ": 1348,
      "stack_trace_getter()  ": 1349,
      "testing::internal::prettyunittestresultprinter::ontestcasestart()  ": 1350,
      "<>::_temporary_buffer": 1351,
      "setdefaultxml": 1352,
      "std::thread::_m_start": 1353,
      "tcmallocinternalcalloc": 1354,
      "tcmallocinternalnewno": 1355,
      "lizer()  ": 1356,
      "testing::formattestcount()  ": 1357,
      "testing::formattestsuitecount()  ": 1358,
      "testing::testeventlisteners::append()  ": 1359,
      "testing::testeventlisteners::setdefaultxml": 1360,
      "_dl_alloc": 1361,
      "_temporary_buffer<>()  ": 1362,
      "avinggtest()  ": 1363,
      "alizeregistry": 1364,
      "bstitut": 1365,
      "dsubstitut": 1366,
      "fwrite  ": 1367,
      "ix::fopen()  ": 1368,
      "ls  ": 1369,
      "nvvar[abi:cxx11]()  ": 1370,
      "symbolizer()  ": 1371,
      "::xmlunittestresultprinter()  ": 1372,
      "flagalsochecke": 1373,
      "onleavinggtest()  ": 1374,
      "absl::lts_20250814::strings_internal::fin": 1375,
      "absl::lts_20250814::initializesymbolizer()  ": 1376,
      "testing::internal::outputflagalsochecke": 1377,
      "testing::internal::posix::fopen()  ": 1378,
      "testing::internal::xmlunittestresultprinter::xmlunittestresultprinter()  ": 1379,
      "std::get_temporary_buffer<>()  ": 1380,
      "absl::lts_20250814::flags_internal::finalizeregistry": 1381,
      "strdup  ": 1382,
      "std::__str_concat<>()  ": 1383,
      "ate_tls  ": 1384,
      "testing::internal::unittestimpl::os_stack_trace_getter()  ": 1385,
      "testing::unittest::uponleavinggtest()  ": 1386,
      "std::_temporary_buffer<>::_temporary_buffer": 1387,
      "_thread()  ": 1388,
      "pthread_create  ": 1389,
      "std::thread::_m_start_thread()  ": 1390,
      "tcmallocinternalcalloc  ": 1391,
      "tcmallocinternalnewnothrow  ": 1392,
      "testing::testeventlisteners::setdefaultxmlgenerator()  ": 1393,
      "_dl_allocate_tls  ": 1394,
      "dsubstitutions<>()  ": 1395,
      "absl::lts_20250814::strings_internal::findsubstitutions<>()  ": 1396,
      "testing::internal::outputflagalsocheckenvvar[abi:cxx11]()  ": 1397,
      "absl::lts_20250814::flags_internal::finalizeregistry()  ": 1398,
      "std::_temporary_buffer<>::_temporary_buffer()  ": 1399,
      "testing::internal::testeventrepeater::ontestend()  ": 1400,
      "testing::internal::prettyunittestresultprinter::ontestend()  ": 1401
    },
    "merges": [
      [
        ":",
        ":"
      ],
      [
        "t",
        "e"
      ],
      [
        "i",
        "n"
      ],
      [
        "s",
        "t"
      ],
      [
        " ",
        " "
      ],
      [
        "(",
        ")"
      ],
      [
        "()",
        "  "
      ],
      [
        "l",
        "::"
      ],
      [
        "te",
        "st"
      ],
      [
        "n",
        "a"
      ],
      [
        "a",
        "g"
      ],
      [
        "te",
        "r"
      ],
      [
        "in",
        "ter"
      ],
      [
        "inter",
        "na"
      ],
      [
        "interna",
        "l::"
      ],
      [
        "<",
        ">"
      ],
      [
        "in",
        "g"
      ],
      [
        "f",
        "l"
      ],
      [
        "s",
        "_"
      ],
      [
        "fl",
        "ag"
      ],
      [
        "l",
        "l"
      ],
      [
        "ing",
        "::"
      ],
      [
        "test",
        "ing::"
      ],
      [
        "a",
        "ll"
      ],
      [
        "<>",
        "()  "
      ],
      [
        "a",
        "b"
      ],
      [
        "o",
        "n"
      ],
      [
        "o",
        "r"
      ],
      [
        "l",
        "t"
      ],
      [
        "ab",
        "s"
      ],
      [
        "m",
        "p"
      ],
      [
        "i",
        "mp"
      ],
      [
        "0",
        "2"
      ],
      [
        "0",
        "8"
      ],
      [
        "1",
        "4"
      ],
      [
        "2",
        "02"
      ],
      [
        "5",
        "08"
      ],
      [
        "l::",
        "lt"
      ],
      [
        "s_",
        "202"
      ],
      [
        "abs",
        "l::lt"
      ],
      [
        "14",
        "::"
      ],
      [
        "508",
        "14::"
      ],
      [
        "s_202",
        "50814::"
      ],
      [
        "absl::lt",
        "s_20250814::"
      ],
      [
        "testing::",
        "internal::"
      ],
      [
        "o",
        "c"
      ],
      [
        "all",
        "oc"
      ],
      [
        "u",
        "n"
      ],
      [
        "a",
        "t"
      ],
      [
        "d",
        "::"
      ],
      [
        "st",
        "d::"
      ],
      [
        "a",
        "n"
      ],
      [
        "c",
        "e"
      ],
      [
        "i",
        "on"
      ],
      [
        "e",
        "r"
      ],
      [
        "absl::lts_20250814::",
        "flag"
      ],
      [
        "s_",
        "internal::"
      ],
      [
        "absl::lts_20250814::flag",
        "s_internal::"
      ],
      [
        "e",
        "t"
      ],
      [
        "_",
        "_"
      ],
      [
        "ion",
        "s"
      ],
      [
        "imp",
        "l::"
      ],
      [
        "st",
        "r"
      ],
      [
        "l",
        "e"
      ],
      [
        "a",
        "r"
      ],
      [
        "absl::lts_20250814::flags_internal::",
        "flag"
      ],
      [
        "i",
        "t"
      ],
      [
        "an",
        "d"
      ],
      [
        "h",
        "and"
      ],
      [
        "k",
        "e"
      ],
      [
        "s",
        "u"
      ],
      [
        "in",
        "v"
      ],
      [
        "o",
        "ke"
      ],
      [
        "inv",
        "oke"
      ],
      [
        "m",
        "alloc"
      ],
      [
        "std::",
        "__"
      ],
      [
        "<>",
        "::"
      ],
      [
        "c",
        "malloc"
      ],
      [
        "t",
        "cmalloc"
      ],
      [
        "hand",
        "le"
      ],
      [
        "s",
        "a"
      ],
      [
        "r",
        "un"
      ],
      [
        "e",
        "x"
      ],
      [
        "sa",
        "v"
      ],
      [
        "b",
        "a"
      ],
      [
        "r",
        "e"
      ],
      [
        "o",
        "d"
      ],
      [
        "p",
        "t"
      ],
      [
        "i",
        "f"
      ],
      [
        "pt",
        "ions"
      ],
      [
        "ba",
        "s"
      ],
      [
        "d",
        "<>()  "
      ],
      [
        "ce",
        "ptions"
      ],
      [
        "ex",
        "ceptions"
      ],
      [
        "p",
        "p"
      ],
      [
        "h",
        "od"
      ],
      [
        "m",
        "et"
      ],
      [
        "te",
        "d<>()  "
      ],
      [
        "in",
        "met"
      ],
      [
        "or",
        "ted<>()  "
      ],
      [
        "testing::internal::",
        "handle"
      ],
      [
        "su",
        "pp"
      ],
      [
        "if",
        "supp"
      ],
      [
        "exceptions",
        "inmet"
      ],
      [
        "hod",
        "ifsupp"
      ],
      [
        "exceptionsinmet",
        "hodifsupp"
      ],
      [
        "exceptionsinmethodifsupp",
        "orted<>()  "
      ],
      [
        "imp",
        "l"
      ],
      [
        "_",
        "m"
      ],
      [
        "l",
        "i"
      ],
      [
        "c",
        "_"
      ],
      [
        "st",
        "ar"
      ],
      [
        "star",
        "t"
      ],
      [
        "str",
        "ing"
      ],
      [
        "o",
        "p"
      ],
      [
        "absl::lts_20250814::flags_internal::flag",
        "impl::"
      ],
      [
        "un",
        "it"
      ],
      [
        "unit",
        "test"
      ],
      [
        "a",
        "in"
      ],
      [
        "ain",
        "  "
      ],
      [
        "at",
        "or"
      ],
      [
        "e",
        "n"
      ],
      [
        "::",
        "run"
      ],
      [
        "::run",
        "()  "
      ],
      [
        "er",
        "ator"
      ],
      [
        "op",
        "erator"
      ],
      [
        "a",
        "te"
      ],
      [
        "std::__",
        "invoke"
      ],
      [
        "bas",
        "i"
      ],
      [
        "impl",
        "<>()  "
      ],
      [
        "_",
        "test"
      ],
      [
        "tcmalloc",
        "::"
      ],
      [
        "s",
        "()  "
      ],
      [
        "_",
        "internal::"
      ],
      [
        "c",
        "t"
      ],
      [
        "y",
        "m"
      ],
      [
        "b",
        "o"
      ],
      [
        "m",
        "e"
      ],
      [
        "ag",
        "e"
      ],
      [
        "testing::",
        "test"
      ],
      [
        "s",
        "age"
      ],
      [
        "me",
        "s"
      ],
      [
        "g",
        "et"
      ],
      [
        "s",
        "e"
      ],
      [
        "1",
        "1"
      ],
      [
        "c",
        "x"
      ],
      [
        "x",
        "11"
      ],
      [
        "cx",
        "x11"
      ],
      [
        "sav",
        "er"
      ],
      [
        "test",
        "_"
      ],
      [
        "r",
        "o"
      ],
      [
        "sav",
        "e"
      ],
      [
        "f",
        "ro"
      ],
      [
        "fro",
        "m"
      ],
      [
        "_",
        "alloc"
      ],
      [
        "std::__invoke",
        "_"
      ],
      [
        "h",
        "exceptionsinmethodifsupported<>()  "
      ],
      [
        "testing::internal::handle",
        "exceptionsinmethodifsupported<>()  "
      ],
      [
        "testing::internal::handle",
        "se"
      ],
      [
        "testing::internal::handlese",
        "hexceptionsinmethodifsupported<>()  "
      ],
      [
        "in",
        "it"
      ],
      [
        "alloc",
        "at"
      ],
      [
        "allocat",
        "ions"
      ],
      [
        "g",
        "en"
      ],
      [
        "c",
        "all"
      ],
      [
        "on",
        "ce"
      ],
      [
        "w",
        "_alloc"
      ],
      [
        "f",
        "a"
      ],
      [
        "z",
        "e"
      ],
      [
        "basi",
        "c_"
      ],
      [
        "testing::internal::",
        "unittest"
      ],
      [
        "n",
        "e"
      ],
      [
        "e",
        "a"
      ],
      [
        "allocations",
        "i"
      ],
      [
        "tcmalloc",
        "_internal::"
      ],
      [
        "tcmalloc::",
        "tcmalloc_internal::"
      ],
      [
        "l",
        "o"
      ],
      [
        "t",
        "s"
      ],
      [
        "li",
        "ze"
      ],
      [
        "testing::internal::unittest",
        "impl::"
      ],
      [
        "w",
        "()  "
      ],
      [
        "ate",
        "()  "
      ],
      [
        "_",
        "s"
      ],
      [
        "ym",
        "bo"
      ],
      [
        "c",
        "an"
      ],
      [
        "s",
        "lo"
      ],
      [
        "test",
        "at"
      ],
      [
        "allocationsi",
        "testat"
      ],
      [
        "tcmalloc::tcmalloc_internal::",
        "slo"
      ],
      [
        "ts",
        "ymbo"
      ],
      [
        "lize",
        "  "
      ],
      [
        "can",
        "tsymbo"
      ],
      [
        "allocationsitestat",
        "s"
      ],
      [
        "tcmalloc::tcmalloc_internal::slo",
        "w_alloc"
      ],
      [
        "cantsymbo",
        "lize  "
      ],
      [
        "_",
        "start"
      ],
      [
        "f",
        "or"
      ],
      [
        "b",
        "c_"
      ],
      [
        "m",
        "ain  "
      ],
      [
        "__",
        "li"
      ],
      [
        "_m",
        "ain  "
      ],
      [
        "start",
        "_main  "
      ],
      [
        "_start",
        "  "
      ],
      [
        "bc_",
        "start_main  "
      ],
      [
        "__li",
        "bc_start_main  "
      ],
      [
        "m",
        "all"
      ],
      [
        "_s",
        "mall"
      ],
      [
        "basic_",
        "string"
      ],
      [
        "tcmalloc::tcmalloc_internal::slow_alloc",
        "_small"
      ],
      [
        "tcmalloc::tcmalloc_internal::slow_alloc_small",
        "<>()  "
      ],
      [
        "test",
        "()  "
      ],
      [
        "::",
        "basic_string"
      ],
      [
        "std::__",
        "cxx11"
      ],
      [
        "std::__cxx11",
        "::basic_string"
      ],
      [
        " ",
        "ne"
      ],
      [
        "operator",
        " ne"
      ],
      [
        "operator ne",
        "w()  "
      ],
      [
        "d",
        "()  "
      ],
      [
        "<>::",
        "_m"
      ],
      [
        "std::__invoke_",
        "impl<>()  "
      ],
      [
        "t",
        "o"
      ],
      [
        "a",
        "ce"
      ],
      [
        "::",
        "allocationsitestats"
      ],
      [
        "v",
        "e"
      ],
      [
        "test",
        "s()  "
      ],
      [
        "ct",
        "or"
      ],
      [
        "mes",
        "sage"
      ],
      [
        "run",
        "_"
      ],
      [
        "testing::",
        "unittest"
      ],
      [
        "all",
        "_test"
      ],
      [
        "run_",
        "all_test"
      ],
      [
        "testing::unittest",
        "::run()  "
      ],
      [
        "run_all_test",
        "s()  "
      ],
      [
        "::allocationsitestats",
        "test_"
      ],
      [
        "bas",
        "e"
      ],
      [
        "r",
        "u"
      ],
      [
        "na",
        "ll"
      ],
      [
        "testing::internal::unittestimpl::",
        "ru"
      ],
      [
        "nall",
        "tests()  "
      ],
      [
        "testing::internal::unittestimpl::ru",
        "nalltests()  "
      ],
      [
        "o",
        "u"
      ],
      [
        "str",
        "ea"
      ],
      [
        "strea",
        "m"
      ],
      [
        "init",
        "()  "
      ],
      [
        "f",
        "un"
      ],
      [
        "ct",
        "ion"
      ],
      [
        "fun",
        "ction"
      ],
      [
        "d",
        "e"
      ],
      [
        "te",
        "n"
      ],
      [
        "u",
        "sage"
      ],
      [
        "c",
        "usage"
      ],
      [
        "basi",
        "cusage"
      ],
      [
        "::allocationsitestatstest_",
        "basicusage"
      ],
      [
        "::allocationsitestatstest_basicusage",
        "_test"
      ],
      [
        "g",
        "i"
      ],
      [
        "str",
        "y"
      ],
      [
        "gi",
        "stry"
      ],
      [
        "()",
        "()  "
      ],
      [
        "impl::",
        "save"
      ],
      [
        "absl::lts_20250814::flags_internal::flag",
        "saver"
      ],
      [
        "re",
        "gistry"
      ],
      [
        "operator",
        "()()  "
      ],
      [
        "from",
        "registry"
      ],
      [
        "impl::save",
        "fromregistry"
      ],
      [
        "absl::lts_20250814::flags_internal::flagsaver",
        "impl::savefromregistry"
      ],
      [
        "u",
        "lt"
      ],
      [
        "st",
        "ate()  "
      ],
      [
        "save",
        "state()  "
      ],
      [
        "<>::_m",
        "_"
      ],
      [
        "l",
        "flag"
      ],
      [
        "i",
        "te"
      ],
      [
        "te",
        "s"
      ],
      [
        "testing::",
        "message"
      ],
      [
        "testing::message",
        "::"
      ],
      [
        "o",
        "l"
      ],
      [
        " ",
        "na"
      ],
      [
        "(",
        "an"
      ],
      [
        "p",
        "ace"
      ],
      [
        "s",
        " na"
      ],
      [
        "on",
        "ym"
      ],
      [
        "mes",
        "pace"
      ],
      [
        "ou",
        "s na"
      ],
      [
        "(an",
        "onym"
      ],
      [
        "mespace",
        ")"
      ],
      [
        "ous na",
        "mespace)"
      ],
      [
        "(anonym",
        "ous namespace)"
      ],
      [
        "en",
        "v"
      ],
      [
        "re",
        "a"
      ],
      [
        "fa",
        "ult"
      ],
      [
        "de",
        "fault"
      ],
      [
        "_",
        "once"
      ],
      [
        "d",
        "at"
      ],
      [
        "g",
        "test_"
      ],
      [
        "u",
        "ar"
      ],
      [
        "ag",
        "uar"
      ],
      [
        "abs",
        "lflag"
      ],
      [
        "absl::lts_20250814::",
        "call"
      ],
      [
        "absl::lts_20250814::",
        "base"
      ],
      [
        "std::",
        "invoke"
      ],
      [
        "absl::lts_20250814::flags_internal::flagimpl::",
        "init()  "
      ],
      [
        "absl::lts_20250814::flags_internal::flagimpl::",
        "dat"
      ],
      [
        "std::__invoke",
        "<>()  "
      ],
      [
        "_internal::",
        "call"
      ],
      [
        "gen",
        "()  "
      ],
      [
        "gen",
        "for"
      ],
      [
        "once",
        "impl<>()  "
      ],
      [
        "default",
        "genfor"
      ],
      [
        "_once",
        "<>()  "
      ],
      [
        "aguar",
        "d()  "
      ],
      [
        "abslflag",
        "defaultgenfor"
      ],
      [
        "absl::lts_20250814::call",
        "_once<>()  "
      ],
      [
        "absl::lts_20250814::base",
        "_internal::call"
      ],
      [
        "std::invoke",
        "<>()  "
      ],
      [
        "absl::lts_20250814::flags_internal::flagimpl::dat",
        "aguard()  "
      ],
      [
        "abslflagdefaultgenfor",
        "gtest_"
      ],
      [
        "absl::lts_20250814::base_internal::call",
        "onceimpl<>()  "
      ],
      [
        "tes",
        "ten"
      ],
      [
        "v",
        "ar"
      ],
      [
        "g",
        "testen"
      ],
      [
        "v",
        "()  "
      ],
      [
        "flag",
        "to"
      ],
      [
        "testing::internal::",
        "flagto"
      ],
      [
        "from",
        "gtesten"
      ],
      [
        "env",
        "var"
      ],
      [
        "testing::internal::flagto",
        "envvar"
      ],
      [
        "fromgtesten",
        "v()  "
      ],
      [
        "testing::internal::flagtoenvvar",
        "()  "
      ],
      [
        "tcmalloc::",
        "(anonymous namespace)"
      ],
      [
        "u",
        "t"
      ],
      [
        "bo",
        "ol"
      ],
      [
        "p",
        "r"
      ],
      [
        "su",
        "ite"
      ],
      [
        "absl::lts_20250814::flags_internal::flagimpl::",
        "rea"
      ],
      [
        "testing::test",
        "suite"
      ],
      [
        "testing::testsuite",
        "::run()  "
      ],
      [
        "std::",
        "_"
      ],
      [
        "f",
        "o"
      ],
      [
        "in",
        "fo"
      ],
      [
        "testing::test",
        "info"
      ],
      [
        "testing::testinfo",
        "::run()  "
      ],
      [
        "c",
        "h"
      ],
      [
        "::",
        "gen()  "
      ],
      [
        "o",
        "o"
      ],
      [
        "g",
        "le"
      ],
      [
        "g",
        "oo"
      ],
      [
        "goo",
        "gle"
      ],
      [
        "ve",
        "ctor"
      ],
      [
        "s",
        "er"
      ],
      [
        "init",
        "google"
      ],
      [
        "c",
        "re"
      ],
      [
        "cre",
        "ate"
      ],
      [
        ":",
        "cxx11"
      ],
      [
        "[",
        "ab"
      ],
      [
        "]",
        "()  "
      ],
      [
        "i",
        ":cxx11"
      ],
      [
        "[ab",
        "i:cxx11"
      ],
      [
        "[abi:cxx11",
        "]()  "
      ],
      [
        "testing::internal::",
        "string"
      ],
      [
        "y",
        "impl"
      ],
      [
        "er",
        "::"
      ],
      [
        "tcmalloc::(anonymous namespace)",
        "::allocationsitestatstest_basicusage_test"
      ],
      [
        "testing::internal::",
        "bool"
      ],
      [
        "testing::internal::bool",
        "fromgtestenv()  "
      ],
      [
        "_",
        "hand"
      ],
      [
        "l",
        "er"
      ],
      [
        "_hand",
        "ler"
      ],
      [
        "test",
        "fa"
      ],
      [
        "testing::internal::",
        "testfa"
      ],
      [
        "<>::",
        "create"
      ],
      [
        "ctor",
        "yimpl"
      ],
      [
        "testing::internal::testfa",
        "ctoryimpl"
      ],
      [
        "<>::create",
        "test()  "
      ],
      [
        "testing::internal::testfactoryimpl",
        "<>::createtest()  "
      ],
      [
        "a",
        "c"
      ],
      [
        "p",
        "e"
      ],
      [
        "::",
        "test()  "
      ],
      [
        "testing::test",
        "::test()  "
      ],
      [
        "a",
        "m"
      ],
      [
        "f",
        "i"
      ],
      [
        "::",
        "flag"
      ],
      [
        "absl::lts_20250814::flag",
        "saver"
      ],
      [
        "saver",
        "()  "
      ],
      [
        "::flag",
        "saver()  "
      ],
      [
        "absl::lts_20250814::flagsaver",
        "::flagsaver()  "
      ],
      [
        "std::__cxx11::basic_string",
        "<>::"
      ],
      [
        "#",
        "1"
      ],
      [
        "a",
        "()"
      ],
      [
        "b",
        "d"
      ],
      [
        "l",
        "am"
      ],
      [
        "r",
        "<>()  "
      ],
      [
        "{",
        "lam"
      ],
      [
        "}",
        "::"
      ],
      [
        "::",
        "{lam"
      ],
      [
        "()",
        "::{lam"
      ],
      [
        "flag",
        "()  "
      ],
      [
        "std::",
        "function"
      ],
      [
        "absl::lts_20250814::flags_internal::",
        "for"
      ],
      [
        "invoke",
        "()  "
      ],
      [
        "<>::",
        "operator()()  "
      ],
      [
        "std::__invoke_",
        "r<>()  "
      ],
      [
        "ea",
        "ch"
      ],
      [
        "function",
        "_handler"
      ],
      [
        "absl::lts_20250814::flags_internal::flagsaverimpl::savefromregistry",
        "()  "
      ],
      [
        "absl::lts_20250814::flags_internal::flagsaverimpl::savefromregistry",
        "()::{lam"
      ],
      [
        "<>::_m_",
        "invoke()  "
      ],
      [
        "std::_",
        "function_handler"
      ],
      [
        "#1",
        "}::"
      ],
      [
        "a()",
        "#1}::"
      ],
      [
        "bd",
        "a()#1}::"
      ],
      [
        "std::function",
        "<>::operator()()  "
      ],
      [
        "absl::lts_20250814::flags_internal::for",
        "each"
      ],
      [
        "absl::lts_20250814::flags_internal::flagsaverimpl::savefromregistry()::{lam",
        "bda()#1}::"
      ],
      [
        "std::_function_handler",
        "<>::_m_invoke()  "
      ],
      [
        "absl::lts_20250814::flags_internal::foreach",
        "flag()  "
      ],
      [
        "absl::lts_20250814::flags_internal::flagsaverimpl::savefromregistry()::{lambda()#1}::",
        "operator()()  "
      ],
      [
        "i",
        "v"
      ],
      [
        "s",
        "s"
      ],
      [
        "::",
        "savestate()  "
      ],
      [
        "or",
        "::savestate()  "
      ],
      [
        "ce",
        "ss"
      ],
      [
        "absl::lts_20250814::flags_internal::",
        "pr"
      ],
      [
        "handle",
        "ac"
      ],
      [
        "absl::lts_20250814::flags_internal::flagimpl::",
        "savestate()  "
      ],
      [
        "ate",
        "handleac"
      ],
      [
        "iv",
        "atehandleac"
      ],
      [
        "cess",
        "or::savestate()  "
      ],
      [
        "absl::lts_20250814::flags_internal::pr",
        "ivatehandleac"
      ],
      [
        "absl::lts_20250814::flags_internal::privatehandleac",
        "cessor::savestate()  "
      ],
      [
        "<>::",
        "get"
      ],
      [
        "<>::get",
        "()  "
      ],
      [
        "re",
        "ser"
      ],
      [
        "ve",
        "()  "
      ],
      [
        "reser",
        "ve()  "
      ],
      [
        "flag",
        "<>()  "
      ],
      [
        "absl::lts_20250814::",
        "get"
      ],
      [
        "absl::lts_20250814::flags_internal::flag",
        "impl"
      ],
      [
        "absl::lts_20250814::flags_internal::flag",
        "<>::get()  "
      ],
      [
        "invoke",
        "get"
      ],
      [
        "er::",
        "invokeget"
      ],
      [
        "pe",
        "er::invokeget"
      ],
      [
        "absl::lts_20250814::get",
        "flag<>()  "
      ],
      [
        "absl::lts_20250814::flags_internal::flagimpl",
        "peer::invokeget"
      ],
      [
        "absl::lts_20250814::flags_internal::flagimplpeer::invokeget",
        "<>()  "
      ],
      [
        "::allocationsitestatstest_basicusage_test",
        "()  "
      ],
      [
        "tcmalloc::(anonymous namespace)::allocationsitestatstest_basicusage_test",
        "::allocationsitestatstest_basicusage_test()  "
      ],
      [
        "string",
        "()  "
      ],
      [
        "std::__cxx11::basic_string<>::",
        "reserve()  "
      ],
      [
        "p",
        "ut"
      ],
      [
        "string",
        "[abi:cxx11]()  "
      ],
      [
        "get",
        "string[abi:cxx11]()  "
      ],
      [
        "to",
        "string()  "
      ],
      [
        "stream",
        "tostring()  "
      ],
      [
        "testing::message::",
        "getstring[abi:cxx11]()  "
      ],
      [
        "testing::internal::string",
        "streamtostring()  "
      ],
      [
        "absl::lts_20250814::flags_internal::flagimpl::rea",
        "d()  "
      ],
      [
        "on",
        "e"
      ],
      [
        "u",
        "f"
      ],
      [
        " ",
        "<>()  "
      ],
      [
        "<",
        "<"
      ],
      [
        "p",
        "ar"
      ],
      [
        "operator",
        "<<"
      ],
      [
        "operator<<",
        " <>()  "
      ],
      [
        "std::",
        "vector"
      ],
      [
        "b",
        "uf"
      ],
      [
        "test",
        "impl<>()  "
      ],
      [
        "testing::",
        "initgoogle"
      ],
      [
        "testing::internal::",
        "initgoogle"
      ],
      [
        "testing::initgoogle",
        "test()  "
      ],
      [
        "testing::internal::initgoogle",
        "testimpl<>()  "
      ],
      [
        "std::__cxx11::basic_string",
        "<>::_m_"
      ],
      [
        "d",
        "one"
      ],
      [
        "absl::lts_20250814::flags_internal::flagimpl::rea",
        "done"
      ],
      [
        "l",
        "ace"
      ],
      [
        "in",
        "t"
      ],
      [
        "message",
        "()  "
      ],
      [
        "y",
        "()  "
      ],
      [
        "testing::message::",
        "message()  "
      ],
      [
        "re",
        "p"
      ],
      [
        "buf",
        "<>::"
      ],
      [
        "_",
        "base"
      ],
      [
        "vector",
        "_base"
      ],
      [
        "c",
        "on"
      ],
      [
        "p",
        "o"
      ],
      [
        "l",
        "ter"
      ],
      [
        "fi",
        "lter"
      ],
      [
        "bool",
        "()  "
      ],
      [
        "absl::lts_20250814::flags_internal::flagimpl::readone",
        "bool()  "
      ],
      [
        "std::vector",
        "<>::"
      ],
      [
        "std::_",
        "vector_base"
      ],
      [
        "rep",
        "lace"
      ],
      [
        "u",
        "re"
      ],
      [
        "_m",
        "ut"
      ],
      [
        "std::__cxx11::basic_string",
        "<>::_m"
      ],
      [
        "_mut",
        "ate()  "
      ],
      [
        "std::__cxx11::basic_string<>::_m",
        "_mutate()  "
      ],
      [
        "l",
        "_"
      ],
      [
        "fa",
        "i"
      ],
      [
        "put",
        "()  "
      ],
      [
        "std::__cxx11::basic_string<>::_m_",
        "replace"
      ],
      [
        "s",
        "ing"
      ],
      [
        "st",
        "flag"
      ],
      [
        "testing::internal::unittestimpl::",
        "po"
      ],
      [
        "par",
        "sing"
      ],
      [
        "stflag",
        "parsing"
      ],
      [
        "testing::internal::unittestimpl::po",
        "stflagparsing"
      ],
      [
        "testing::internal::unittestimpl::postflagparsing",
        "init()  "
      ],
      [
        "b",
        "od"
      ],
      [
        "::",
        "test"
      ],
      [
        "testing::test",
        "::run()  "
      ],
      [
        "bod",
        "y()  "
      ],
      [
        "::test",
        "body()  "
      ],
      [
        "t",
        "<>()  "
      ],
      [
        "m",
        "a"
      ],
      [
        "stream",
        "<>::"
      ],
      [
        "alloc",
        "ate()  "
      ],
      [
        "std::__",
        "ne"
      ],
      [
        "<>::",
        "allocate()  "
      ],
      [
        "ator",
        "<>::allocate()  "
      ],
      [
        "w_alloc",
        "ator<>::allocate()  "
      ],
      [
        "std::__ne",
        "w_allocator<>::allocate()  "
      ],
      [
        "o",
        "v"
      ],
      [
        "fl",
        "o"
      ],
      [
        "er",
        "flo"
      ],
      [
        "ov",
        "erflo"
      ],
      [
        "pr",
        "int"
      ],
      [
        "_",
        "in"
      ],
      [
        "ser",
        "t<>()  "
      ],
      [
        "_in",
        "sert<>()  "
      ],
      [
        "std::__cxx11::basic_string<>::_m_replace",
        "()  "
      ],
      [
        "o",
        "stream"
      ],
      [
        "s",
        "ion"
      ],
      [
        "std::",
        "operator<< <>()  "
      ],
      [
        "malloc",
        "ex"
      ],
      [
        "std::__cxx11::basic_string",
        "buf<>::"
      ],
      [
        "ten",
        "sion"
      ],
      [
        "testing::message::",
        "operator<< <>()  "
      ],
      [
        "overflo",
        "w()  "
      ],
      [
        "mallocex",
        "tension"
      ],
      [
        "std::__cxx11::basic_stringbuf<>::",
        "overflow()  "
      ],
      [
        "str",
        "()  "
      ],
      [
        "std::__cxx11::basic_string",
        "stream<>::"
      ],
      [
        "std::__cxx11::basic_stringstream<>::",
        "str()  "
      ],
      [
        "<>::_m",
        "_alloc"
      ],
      [
        "testing::internal::string",
        "fromgtestenv()  "
      ],
      [
        "e",
        "le"
      ],
      [
        "n",
        "ing"
      ],
      [
        "in",
        "ele"
      ],
      [
        "ar",
        "ning"
      ],
      [
        "ou",
        "t"
      ],
      [
        "ch",
        "inele"
      ],
      [
        "ma",
        "chinele"
      ],
      [
        "machinele",
        "arning"
      ],
      [
        "std::_vector_base",
        "<>::_m_alloc"
      ],
      [
        "std::_vector_base<>::_m_alloc",
        "ate()  "
      ],
      [
        "::",
        "get"
      ],
      [
        "_",
        "ba"
      ],
      [
        "c",
        "k"
      ],
      [
        "_ba",
        "ck"
      ],
      [
        "_",
        "interna"
      ],
      [
        "_interna",
        "l_"
      ],
      [
        "_",
        "fai"
      ],
      [
        "l",
        "ure"
      ],
      [
        "s",
        "on"
      ],
      [
        "allocationsitestats",
        "  "
      ],
      [
        "par",
        "se"
      ],
      [
        "_internal_",
        "get"
      ],
      [
        "_fai",
        "lure"
      ],
      [
        "son",
        "l"
      ],
      [
        "_test",
        "_"
      ],
      [
        "std::",
        "basic_"
      ],
      [
        "at",
        "ion"
      ],
      [
        "testing::internal::unittestimpl::",
        "con"
      ],
      [
        "fi",
        "g"
      ],
      [
        "fi",
        "le"
      ],
      [
        "testing::internal::unittestimpl::con",
        "fig"
      ],
      [
        "m",
        "at"
      ],
      [
        "s",
        "h"
      ],
      [
        "testing::internal::unittestimpl::",
        "filter"
      ],
      [
        "testing::internal::unittestimpl::filter",
        "tests()  "
      ],
      [
        "o",
        "_"
      ],
      [
        "u",
        "ct"
      ],
      [
        "str",
        "uct"
      ],
      [
        "con",
        "struct"
      ],
      [
        "2",
        "fromgtestenv()  "
      ],
      [
        "3",
        "2fromgtestenv()  "
      ],
      [
        "testing::internal::",
        "int"
      ],
      [
        "testing::internal::int",
        "32fromgtestenv()  "
      ],
      [
        "at",
        "h"
      ],
      [
        "i",
        "p"
      ],
      [
        "test",
        "_m"
      ],
      [
        "le",
        "allocations"
      ],
      [
        "sa",
        "mes"
      ],
      [
        "en",
        "t"
      ],
      [
        "::allocationsitestats",
        "test_m"
      ],
      [
        "ult",
        "ip"
      ],
      [
        "ite",
        "_test"
      ],
      [
        "leallocations",
        "sames"
      ],
      [
        "::allocationsitestatstest_m",
        "ultip"
      ],
      [
        "leallocationssames",
        "ite_test"
      ],
      [
        "::allocationsitestatstest_multip",
        "leallocationssamesite_test"
      ],
      [
        "c",
        "op"
      ],
      [
        "_",
        "t"
      ],
      [
        "out",
        "put"
      ],
      [
        "su",
        "lt"
      ],
      [
        "re",
        "sult"
      ],
      [
        "c",
        "or"
      ],
      [
        "cor",
        "d"
      ],
      [
        "f",
        "er"
      ],
      [
        "::",
        "on"
      ],
      [
        "std::vector",
        "<>::_m_"
      ],
      [
        "unittest",
        "filter"
      ],
      [
        "tcmalloc::(anonymous namespace)::allocationsitestatstest_basicusage_test",
        "::testbody()  "
      ],
      [
        "s",
        "put"
      ],
      [
        "x",
        "sput"
      ],
      [
        "construct",
        "<>()  "
      ],
      [
        "xsput",
        "n"
      ],
      [
        "e",
        "cord"
      ],
      [
        "ter",
        "ecord"
      ],
      [
        "malloc",
        "  "
      ],
      [
        "allocationsi",
        "terecord"
      ],
      [
        "tcmalloc::tcmalloc_internal::",
        "allocationsiterecord"
      ],
      [
        "tcmalloc::tcmalloc_internal::allocationsiterecord",
        "er::"
      ],
      [
        "_",
        "on"
      ],
      [
        "e",
        "i"
      ],
      [
        "i",
        "ve"
      ],
      [
        "t",
        "h"
      ],
      [
        "test",
        "i"
      ],
      [
        "abs",
        "ei"
      ],
      [
        "d::",
        "gen()  "
      ],
      [
        "start",
        "()  "
      ],
      [
        "lflag",
        "sonl"
      ],
      [
        "abslflagdefaultgenforgtest_",
        "print"
      ],
      [
        "tcmalloc::(anonymous namespace)",
        "::"
      ],
      [
        "parse",
        "absei"
      ],
      [
        "_failure",
        "::gen()  "
      ],
      [
        "_on",
        "_failure::gen()  "
      ],
      [
        "parseabsei",
        "lflagsonl"
      ],
      [
        "de",
        "ath"
      ],
      [
        "abslflagdefaultgenforgtest_",
        "death"
      ],
      [
        "abslflagdefaultgenforgtest_death",
        "_test_"
      ],
      [
        "st",
        "at"
      ],
      [
        "stat",
        "s()  "
      ],
      [
        "alloc",
        "_insert<>()  "
      ],
      [
        "re",
        "alloc_insert<>()  "
      ],
      [
        "std::vector<>::_m_",
        "realloc_insert<>()  "
      ],
      [
        "std::__",
        "ostream"
      ],
      [
        "stream",
        "buf<>::"
      ],
      [
        "std::__cxx11::basic_string<>::_m_",
        "construct<>()  "
      ],
      [
        "std::basic_",
        "streambuf<>::"
      ],
      [
        "xsputn",
        "()  "
      ],
      [
        "std::__ostream",
        "_insert<>()  "
      ],
      [
        "std::basic_streambuf<>::",
        "xsputn()  "
      ],
      [
        "tcmalloc::",
        "mallocextension"
      ],
      [
        "allocationsitestats",
        "[abi:cxx11]()  "
      ],
      [
        "mallocextension",
        "_internal_get"
      ],
      [
        "tcmalloc::mallocextension",
        "::get"
      ],
      [
        "m",
        "lo"
      ],
      [
        "r",
        "ex"
      ],
      [
        "u",
        "rex"
      ],
      [
        "::",
        "put()  "
      ],
      [
        "ter",
        "ation"
      ],
      [
        "std::",
        "ostream"
      ],
      [
        "tcmalloc::(anonymous namespace)",
        "::allocationsitestatstest_"
      ],
      [
        "ut",
        "put()  "
      ],
      [
        "create",
        "_"
      ],
      [
        "testing::internal::unittestimpl::config",
        "urex"
      ],
      [
        "::on",
        "testi"
      ],
      [
        "mlo",
        "utput()  "
      ],
      [
        "teration",
        "start()  "
      ],
      [
        "std::ostream",
        "::put()  "
      ],
      [
        "testing::internal::unittestimpl::configurex",
        "mloutput()  "
      ],
      [
        "::ontesti",
        "terationstart()  "
      ],
      [
        "d",
        "if"
      ],
      [
        "i",
        "ze"
      ],
      [
        "en",
        "ts"
      ],
      [
        "tcmalloc::(anonymous namespace)",
        "::allocationsitestatstest_multipleallocationssamesite_test"
      ],
      [
        "fer",
        "ents"
      ],
      [
        "dif",
        "ferents"
      ],
      [
        "ize",
        "s_"
      ],
      [
        "differents",
        "izes_"
      ],
      [
        "cop",
        "y"
      ],
      [
        "e",
        "mp"
      ],
      [
        "lace",
        "_back"
      ],
      [
        "std::vector<>::",
        "emp"
      ],
      [
        "lace_back",
        "<>()  "
      ],
      [
        "std::vector<>::emp",
        "lace_back<>()  "
      ],
      [
        "c",
        "ol"
      ],
      [
        "ab",
        "le"
      ],
      [
        "for",
        "mat"
      ],
      [
        "col",
        "or"
      ],
      [
        "p",
        "u"
      ],
      [
        "std::vector<>::",
        "pu"
      ],
      [
        "_back",
        "()  "
      ],
      [
        "sh",
        "_back()  "
      ],
      [
        "std::vector<>::pu",
        "sh_back()  "
      ],
      [
        "n",
        "o"
      ],
      [
        "o",
        "ptions"
      ],
      [
        "u",
        "se"
      ],
      [
        "w",
        "or"
      ],
      [
        "alloc",
        "ate"
      ],
      [
        "re",
        "pe"
      ],
      [
        "testing::internal::unittest",
        "options"
      ],
      [
        "abslflagdefaultgenforgtest_",
        "b"
      ],
      [
        "abslflagdefaultgenforgtest_",
        "fai"
      ],
      [
        "absl::lts_20250814::flags_internal::flagimpl::rea",
        "d<>()  "
      ],
      [
        "absl::lts_20250814::flags_internal::flagimpl::readone",
        "wor"
      ],
      [
        "repe",
        "at"
      ],
      [
        "testing::internal::unittestoptions",
        "::get"
      ],
      [
        "abslflagdefaultgenforgtest_fai",
        "l_"
      ],
      [
        "absl::lts_20250814::flags_internal::flagimpl::readonewor",
        "d()  "
      ],
      [
        "v",
        "ent"
      ],
      [
        "te",
        "vent"
      ],
      [
        "tes",
        "tevent"
      ],
      [
        "(anonymous namespace)",
        "::"
      ],
      [
        "a",
        "l"
      ],
      [
        "a",
        "lize"
      ],
      [
        "e",
        "d"
      ],
      [
        "i",
        "alize"
      ],
      [
        "ar",
        "g"
      ],
      [
        "init",
        "ialize"
      ],
      [
        "unittest",
        "result"
      ],
      [
        "pr",
        "inter"
      ],
      [
        "std::__cxx11::basic_string<>::",
        "basic_string"
      ],
      [
        "unittestresult",
        "printer"
      ],
      [
        "_",
        "i"
      ],
      [
        "machinelearning",
        "allocationsitestats  "
      ],
      [
        "_i",
        "o_"
      ],
      [
        "_",
        "copy"
      ],
      [
        "e",
        "<>()  "
      ],
      [
        "from",
        "function"
      ],
      [
        "machinelearning",
        "stats()  "
      ],
      [
        "tcmalloc::(anonymous namespace)::",
        "allocate"
      ],
      [
        "tcmalloc::(anonymous namespace)::allocate",
        "fromfunction"
      ],
      [
        "l",
        "et"
      ],
      [
        "o",
        "string"
      ],
      [
        "ab",
        "let"
      ],
      [
        "testing::internal::",
        "stream"
      ],
      [
        "testing::internal::",
        "testevent"
      ],
      [
        "ea",
        "ter"
      ],
      [
        "rep",
        "eater"
      ],
      [
        "tcmalloc::(anonymous namespace)::allocationsitestatstest_",
        "differentsizes_"
      ],
      [
        "ostring",
        "<>()  "
      ],
      [
        "ablet",
        "ostring<>()  "
      ],
      [
        "testing::internal::stream",
        "abletostring<>()  "
      ],
      [
        "testing::internal::testevent",
        "repeater"
      ],
      [
        "tcmalloc::(anonymous namespace)::allocationsitestatstest_differentsizes_",
        "test"
      ],
      [
        "testing::internal::",
        "(anonymous namespace)::"
      ],
      [
        "unittestfilter",
        "::"
      ],
      [
        "tcmalloc",
        "_internal_get"
      ],
      [
        "tcmalloc::tcmalloc_internal::allocationsiterecorder::",
        "print"
      ],
      [
        "std::__cxx11::basic_string<>::basic_string",
        "<>()  "
      ],
      [
        "c",
        "at"
      ],
      [
        "k",
        "_t"
      ],
      [
        "r",
        "ace"
      ],
      [
        "st",
        "ac"
      ],
      [
        "pt",
        "h"
      ],
      [
        "ro",
        "w"
      ],
      [
        "po",
        "s"
      ],
      [
        "std::vector<>::",
        "vector"
      ],
      [
        "th",
        "row"
      ],
      [
        "al",
        "s"
      ],
      [
        "k_t",
        "race"
      ],
      [
        "stac",
        "k_trace"
      ],
      [
        "stack_trace",
        "_"
      ],
      [
        "t",
        "y"
      ],
      [
        "testing::internal::",
        "pr"
      ],
      [
        "et",
        "ty"
      ],
      [
        "testing::internal::pr",
        "etty"
      ],
      [
        "testing::internal::pretty",
        "unittestresultprinter"
      ],
      [
        "s",
        "<>()  "
      ],
      [
        "absl::lts_20250814::flags_internal::flag",
        "op"
      ],
      [
        "absl::lts_20250814::flags_internal::flagop",
        "s<>()  "
      ],
      [
        "u",
        "p"
      ],
      [
        "8",
        "::gen()  "
      ],
      [
        "_",
        "exceptions"
      ],
      [
        "_",
        "se"
      ],
      [
        "_",
        "for"
      ],
      [
        "_",
        "to"
      ],
      [
        "_",
        "ut"
      ],
      [
        "_",
        "result"
      ],
      [
        "_",
        "no"
      ],
      [
        "_",
        "repeat"
      ],
      [
        "d",
        "i"
      ],
      [
        "d",
        "_test"
      ],
      [
        "e",
        "d::gen()  "
      ],
      [
        "f",
        "8::gen()  "
      ],
      [
        "g",
        "na"
      ],
      [
        "g",
        "at"
      ],
      [
        "h",
        "en"
      ],
      [
        "i",
        "r"
      ],
      [
        "i",
        "me"
      ],
      [
        "i",
        "gna"
      ],
      [
        "k",
        "::gen()  "
      ],
      [
        "k",
        "_on_failure::gen()  "
      ],
      [
        "l",
        "in"
      ],
      [
        "l",
        "_handler"
      ],
      [
        "m",
        "ent"
      ],
      [
        "m",
        "_se"
      ],
      [
        "o",
        "m_se"
      ],
      [
        "r",
        "and"
      ],
      [
        "s",
        "::gen()  "
      ],
      [
        "s",
        "able"
      ],
      [
        "w",
        "hen"
      ],
      [
        "in",
        "st"
      ],
      [
        "test",
        "flag"
      ],
      [
        "ing",
        "out"
      ],
      [
        "s_",
        "when"
      ],
      [
        "ing::",
        "gen()  "
      ],
      [
        "all",
        "_failure"
      ],
      [
        "on",
        "ment"
      ],
      [
        "absl::lts_20250814::",
        "parseabseilflagsonl"
      ],
      [
        "testing::internal::",
        "parse"
      ],
      [
        "absl::lts_20250814::flags_internal::",
        "parseabseilflagsonl"
      ],
      [
        "it",
        "ive"
      ],
      [
        "and",
        "ne"
      ],
      [
        "ke",
        "d::gen()  "
      ],
      [
        "re",
        "create_"
      ],
      [
        "if",
        "_no"
      ],
      [
        "op",
        "en"
      ],
      [
        "_s",
        "igna"
      ],
      [
        "run_",
        "di"
      ],
      [
        "stream",
        "_result"
      ],
      [
        "stream",
        "ingout"
      ],
      [
        "de",
        "pth"
      ],
      [
        "env",
        "ir"
      ],
      [
        "rea",
        "k_on_failure::gen()  "
      ],
      [
        "abslflagdefaultgenforgtest_",
        "cat"
      ],
      [
        "abslflagdefaultgenforgtest_",
        "throw"
      ],
      [
        "abslflagdefaultgenforgtest_",
        "als"
      ],
      [
        "abslflagdefaultgenforgtest_",
        "stack_trace_"
      ],
      [
        "abslflagdefaultgenforgtest_",
        "rand"
      ],
      [
        "abslflagdefaultgenforgtest_",
        "inst"
      ],
      [
        "abslflagdefaultgenforgtest_",
        "recreate_"
      ],
      [
        "abslflagdefaultgenforgtest_",
        "stream_result"
      ],
      [
        "ch",
        "_exceptions"
      ],
      [
        "google",
        "testflag"
      ],
      [
        "yimpl",
        "()  "
      ],
      [
        "ure",
        "streamingout"
      ],
      [
        "sonl",
        "y()  "
      ],
      [
        "_test_",
        "lin"
      ],
      [
        "testing::internal::unittestimpl::config",
        "urestreamingout"
      ],
      [
        "o_",
        "run_di"
      ],
      [
        "_t",
        "ime"
      ],
      [
        "output",
        "format"
      ],
      [
        "abslflagdefaultgenforgtest_print",
        "_ut"
      ],
      [
        "abslflagdefaultgenforgtest_print",
        "_time"
      ],
      [
        "abslflagdefaultgenforgtest_death_test_",
        "use"
      ],
      [
        "mallocextension_internal_get",
        "allocationsitestats  "
      ],
      [
        "tcmalloc::mallocextension::get",
        "allocationsitestats[abi:cxx11]()  "
      ],
      [
        "abslflagdefaultgenforgtest_b",
        "reak_on_failure::gen()  "
      ],
      [
        "testing::internal::unittestoptions::get",
        "outputformat"
      ],
      [
        "abslflagdefaultgenforgtest_fail_",
        "if_no"
      ],
      [
        "pos",
        "itive"
      ],
      [
        "_for",
        "k::gen()  "
      ],
      [
        "_to",
        "::gen()  "
      ],
      [
        "_repeat",
        "ing::gen()  "
      ],
      [
        "d_test",
        "s::gen()  "
      ],
      [
        "gat",
        "ive"
      ],
      [
        "l_handler",
        "::gen()  "
      ],
      [
        "om_se",
        "ed::gen()  "
      ],
      [
        "sable",
        "d_tests::gen()  "
      ],
      [
        "s_when",
        "_repeating::gen()  "
      ],
      [
        "all_failure",
        "_signa"
      ],
      [
        "onment",
        "s_when_repeating::gen()  "
      ],
      [
        "absl::lts_20250814::parseabseilflagsonl",
        "y()  "
      ],
      [
        "testing::internal::parse",
        "googletestflag"
      ],
      [
        "absl::lts_20250814::flags_internal::parseabseilflagsonl",
        "yimpl()  "
      ],
      [
        "andne",
        "gative"
      ],
      [
        "depth",
        "::gen()  "
      ],
      [
        "envir",
        "onments_when_repeating::gen()  "
      ],
      [
        "abslflagdefaultgenforgtest_cat",
        "ch_exceptions"
      ],
      [
        "abslflagdefaultgenforgtest_throw",
        "_on_failure::gen()  "
      ],
      [
        "abslflagdefaultgenforgtest_als",
        "o_run_di"
      ],
      [
        "abslflagdefaultgenforgtest_stack_trace_",
        "depth::gen()  "
      ],
      [
        "abslflagdefaultgenforgtest_rand",
        "om_seed::gen()  "
      ],
      [
        "abslflagdefaultgenforgtest_inst",
        "all_failure_signa"
      ],
      [
        "abslflagdefaultgenforgtest_recreate_",
        "environments_when_repeating::gen()  "
      ],
      [
        "abslflagdefaultgenforgtest_stream_result",
        "_to::gen()  "
      ],
      [
        "_test_lin",
        "ked::gen()  "
      ],
      [
        "testing::internal::unittestimpl::configurestreamingout",
        "put()  "
      ],
      [
        "abslflagdefaultgenforgtest_print_ut",
        "f8::gen()  "
      ],
      [
        "abslflagdefaultgenforgtest_print_time",
        "::gen()  "
      ],
      [
        "abslflagdefaultgenforgtest_death_test_use",
        "_fork::gen()  "
      ],
      [
        "testing::internal::unittestoptions::getoutputformat",
        "[abi:cxx11]()  "
      ],
      [
        "abslflagdefaultgenforgtest_fail_if_no",
        "_test_linked::gen()  "
      ],
      [
        "positive",
        "andnegative"
      ],
      [
        "testing::internal::parsegoogletestflag",
        "sonly()  "
      ],
      [
        "abslflagdefaultgenforgtest_catch_exceptions",
        "::gen()  "
      ],
      [
        "abslflagdefaultgenforgtest_also_run_di",
        "sabled_tests::gen()  "
      ],
      [
        "abslflagdefaultgenforgtest_install_failure_signa",
        "l_handler::gen()  "
      ],
      [
        "y",
        "le"
      ],
      [
        "st",
        "yle"
      ],
      [
        "abslflagdefaultgenforgtest_death_test_",
        "style"
      ],
      [
        "abslflagdefaultgenforgtest_death_test_style",
        "::gen()  "
      ],
      [
        "tcmalloc::(anonymous namespace)::allocationsitestatstest_multipleallocationssamesite_test",
        "::testbody()  "
      ],
      [
        "unittestfilter",
        "()  "
      ],
      [
        "c",
        "l"
      ],
      [
        "absl::lts_20250814::flags_internal::",
        "cl"
      ],
      [
        "one",
        "()  "
      ],
      [
        "absl::lts_20250814::flags_internal::cl",
        "one()  "
      ],
      [
        "d",
        "up"
      ],
      [
        "_",
        "a"
      ],
      [
        "r",
        "ite"
      ],
      [
        "w",
        "rite"
      ],
      [
        "<>::",
        "_"
      ],
      [
        "th",
        "rea"
      ],
      [
        "testing::internal::testeventrepeater",
        "::ontestiterationstart()  "
      ],
      [
        "std::vector<>::vector",
        "()  "
      ],
      [
        "testing::internal::prettyunittestresultprinter",
        "::ontestiterationstart()  "
      ],
      [
        "testing::internal::",
        "s"
      ],
      [
        "machinelearning",
        "allocationsitestats[abi:cxx11]()  "
      ],
      [
        "mallocextension_internal_get",
        "machinelearningallocationsitestats  "
      ],
      [
        "tcmalloc::mallocextension::get",
        "machinelearningallocationsitestats[abi:cxx11]()  "
      ],
      [
        "c",
        "ation"
      ],
      [
        "li",
        "cation"
      ],
      [
        "de",
        "dup"
      ],
      [
        "lication",
        "_test"
      ],
      [
        "dedup",
        "lication_test"
      ],
      [
        "d",
        "_copy"
      ],
      [
        "o",
        "f"
      ],
      [
        "p",
        "re"
      ],
      [
        "st",
        "or"
      ],
      [
        "un",
        "initialize"
      ],
      [
        "it",
        "file"
      ],
      [
        "ex",
        "itfile"
      ],
      [
        "age",
        "()  "
      ],
      [
        "<>::_m_",
        "create_"
      ],
      [
        "abslflagdefaultgenforgtest_",
        "output"
      ],
      [
        "vector_base",
        "()  "
      ],
      [
        "std::_vector_base",
        "<>::_"
      ],
      [
        "std::_vector_base",
        "<>::_m_create_"
      ],
      [
        "ure",
        "exitfile"
      ],
      [
        "file",
        "_"
      ],
      [
        "mat",
        "ureexitfile"
      ],
      [
        "::allocationsitestatstest_multipleallocationssamesite_test",
        "()  "
      ],
      [
        "cop",
        "ed"
      ],
      [
        "tcmalloc::(anonymous namespace)::",
        "write"
      ],
      [
        "tcmalloc::(anonymous namespace)::allocationsitestatstest_multipleallocationssamesite_test",
        "::allocationsitestatstest_multipleallocationssamesite_test()  "
      ],
      [
        "_io_",
        "file_"
      ],
      [
        "pre",
        "matureexitfile"
      ],
      [
        "stor",
        "age()  "
      ],
      [
        "uninitialize",
        "d_copy"
      ],
      [
        "abslflagdefaultgenforgtest_output",
        "::gen()  "
      ],
      [
        "std::_vector_base<>::_",
        "vector_base()  "
      ],
      [
        "std::_vector_base<>::_m_create_",
        "storage()  "
      ],
      [
        "coped",
        "prematureexitfile"
      ],
      [
        "tcmalloc::(anonymous namespace)::write",
        "machinelearningstats()  "
      ],
      [
        "tcmalloc::(anonymous namespace)::allocationsitestatstest_differentsizes_test",
        "::testbody()  "
      ],
      [
        "a",
        "pp"
      ],
      [
        "en",
        "d()  "
      ],
      [
        "tcmalloc_internal_get",
        "allocationsitestats  "
      ],
      [
        "tcmalloc::tcmalloc_internal::allocationsiterecorder::print",
        "stats()  "
      ],
      [
        "open",
        "()  "
      ],
      [
        "app",
        "end()  "
      ],
      [
        "+",
        "<>()  "
      ],
      [
        "_",
        "l"
      ],
      [
        "_",
        "un"
      ],
      [
        "c",
        "o"
      ],
      [
        "f",
        "()  "
      ],
      [
        "i",
        "q"
      ],
      [
        "u",
        "x"
      ],
      [
        "u",
        "e<>()  "
      ],
      [
        "te",
        "s()  "
      ],
      [
        "testing::",
        "format"
      ],
      [
        "testing::internal::",
        "color"
      ],
      [
        "alloc",
        "()  "
      ],
      [
        "un",
        "t"
      ],
      [
        "std::",
        "operator"
      ],
      [
        "std::",
        "ma"
      ],
      [
        "absl::lts_20250814::flags_internal::",
        "alloc()  "
      ],
      [
        "ke",
        "_un"
      ],
      [
        "get",
        "allocationsi"
      ],
      [
        "tcmalloc::tcmalloc_internal::slow_alloc",
        "_l"
      ],
      [
        "std::__cxx11::basic_string<>::_m_replace",
        "_a"
      ],
      [
        "print",
        "f()  "
      ],
      [
        "tcmalloc::tcmalloc_internal::allocationsiterecorder::",
        "getallocationsi"
      ],
      [
        "ed",
        "printf()  "
      ],
      [
        "arg",
        "e<>()  "
      ],
      [
        "testing::internal::(anonymous namespace)::",
        "positiveandnegative"
      ],
      [
        "co",
        "unt"
      ],
      [
        "iq",
        "ue<>()  "
      ],
      [
        "ux",
        "()  "
      ],
      [
        "testing::internal::color",
        "edprintf()  "
      ],
      [
        "std::operator",
        "+<>()  "
      ],
      [
        "std::ma",
        "ke_un"
      ],
      [
        "tcmalloc::tcmalloc_internal::slow_alloc_l",
        "arge<>()  "
      ],
      [
        "std::__cxx11::basic_string<>::_m_replace_a",
        "ux()  "
      ],
      [
        "tcmalloc::tcmalloc_internal::allocationsiterecorder::getallocationsi",
        "tes()  "
      ],
      [
        "testing::internal::(anonymous namespace)::positiveandnegative",
        "unittestfilter::"
      ],
      [
        "std::make_un",
        "ique<>()  "
      ],
      [
        "s",
        "et"
      ],
      [
        "testing::internal::(anonymous namespace)::",
        "unittestfilter::"
      ],
      [
        "testing::internal::(anonymous namespace)::unittestfilter::",
        "unittestfilter()  "
      ],
      [
        "buf",
        "fer"
      ],
      [
        "std::basic_",
        "file"
      ],
      [
        "std::vector<>::",
        "reserve()  "
      ],
      [
        "tcmalloc::(anonymous namespace)::allocationsitestatstest_",
        "deduplication_test"
      ],
      [
        "1",
        "()  "
      ],
      [
        "3",
        "()  "
      ],
      [
        "d",
        "o"
      ],
      [
        "d",
        "use"
      ],
      [
        "e",
        "f"
      ],
      [
        "e",
        "::gen()  "
      ],
      [
        "i",
        "ef"
      ],
      [
        "l",
        "duse"
      ],
      [
        "p",
        "ath"
      ],
      [
        "r",
        "ief"
      ],
      [
        "s",
        "li"
      ],
      [
        "u",
        "te"
      ],
      [
        "st",
        "::gen()  "
      ],
      [
        "fl",
        "e::gen()  "
      ],
      [
        "abs",
        "ol"
      ],
      [
        "absl::lts_20250814::",
        "str"
      ],
      [
        "testing::internal::",
        "sh"
      ],
      [
        "un",
        "init"
      ],
      [
        "std::__",
        "uninitialized_copy"
      ],
      [
        "fa",
        "st::gen()  "
      ],
      [
        "to",
        "output"
      ],
      [
        "::allocationsitestatstest_",
        "differentsizes_"
      ],
      [
        "ou",
        "lduse"
      ],
      [
        "abslflagdefaultgenforgtest_",
        "filter"
      ],
      [
        "abslflagdefaultgenforgtest_",
        "sh"
      ],
      [
        "abslflagdefaultgenforgtest_",
        "color"
      ],
      [
        "abslflagdefaultgenforgtest_",
        "repeat"
      ],
      [
        "uf",
        "fle::gen()  "
      ],
      [
        "replace",
        "all"
      ],
      [
        "file",
        "[abi:cxx11]()  "
      ],
      [
        "color",
        "()  "
      ],
      [
        "abslflagdefaultgenforgtest_b",
        "rief"
      ],
      [
        "testing::internal::unittestoptions::get",
        "absol"
      ],
      [
        "abslflagdefaultgenforgtest_fail_",
        "fast::gen()  "
      ],
      [
        "arg",
        "sli"
      ],
      [
        "_copy",
        "<>()  "
      ],
      [
        "tcmalloc::(anonymous namespace)::allocatefromfunction",
        "1()  "
      ],
      [
        "tcmalloc::(anonymous namespace)::allocatefromfunction",
        "3()  "
      ],
      [
        "tcmalloc::(anonymous namespace)::allocationsitestatstest_differentsizes_test",
        "::allocationsitestatstest_differentsizes_"
      ],
      [
        "tcmalloc_internal_get",
        "machinelearningallocationsitestats  "
      ],
      [
        "tcmalloc::tcmalloc_internal::allocationsiterecorder::print",
        "machinelearningstats()  "
      ],
      [
        "threa",
        "d<>()  "
      ],
      [
        "path",
        "tooutput"
      ],
      [
        "ute",
        "pathtooutput"
      ],
      [
        "absl::lts_20250814::str",
        "replaceall"
      ],
      [
        "testing::internal::sh",
        "oulduse"
      ],
      [
        "uninit",
        "_copy<>()  "
      ],
      [
        "abslflagdefaultgenforgtest_filter",
        "::gen()  "
      ],
      [
        "abslflagdefaultgenforgtest_sh",
        "uffle::gen()  "
      ],
      [
        "abslflagdefaultgenforgtest_color",
        "::gen()  "
      ],
      [
        "abslflagdefaultgenforgtest_repeat",
        "::gen()  "
      ],
      [
        "abslflagdefaultgenforgtest_brief",
        "::gen()  "
      ],
      [
        "testing::internal::unittestoptions::getabsol",
        "utepathtooutput"
      ],
      [
        "argsli",
        "st"
      ],
      [
        "tcmalloc::(anonymous namespace)::allocationsitestatstest_differentsizes_test::allocationsitestatstest_differentsizes_",
        "test()  "
      ],
      [
        "testing::internal::shoulduse",
        "color()  "
      ],
      [
        "testing::internal::unittestoptions::getabsolutepathtooutput",
        "file[abi:cxx11]()  "
      ],
      [
        "g",
        "r"
      ],
      [
        "l",
        "it"
      ],
      [
        "p",
        "ro"
      ],
      [
        "p",
        "lit"
      ],
      [
        "testing::internal::s",
        "plit"
      ],
      [
        "set",
        "pro"
      ],
      [
        "gr",
        "am"
      ],
      [
        "testing::internal::split",
        "string()  "
      ],
      [
        "setpro",
        "gram"
      ],
      [
        "absl::lts_20250814::flags_internal::",
        "copy"
      ],
      [
        "std::__cxx11::basic_string<>::_m_",
        "append()  "
      ],
      [
        "construct",
        "()  "
      ],
      [
        "absl::lts_20250814::flags_internal::copy",
        "construct()  "
      ],
      [
        "_",
        "buffer"
      ],
      [
        "d",
        "_"
      ],
      [
        "m",
        "l"
      ],
      [
        "s",
        "copedprematureexitfile"
      ],
      [
        "x",
        "ml"
      ],
      [
        "y",
        "_buffer"
      ],
      [
        "::",
        "scopedprematureexitfile"
      ],
      [
        "te",
        "mp"
      ],
      [
        "or",
        "ar"
      ],
      [
        "un",
        "()  "
      ],
      [
        "std::",
        "threa"
      ],
      [
        "basic_",
        "of"
      ],
      [
        "stream",
        "()  "
      ],
      [
        "buf<>::",
        "open()  "
      ],
      [
        "stream<>::",
        "basic_of"
      ],
      [
        "std::basic_",
        "of"
      ],
      [
        "able",
        "no"
      ],
      [
        "positiveandnegative",
        "unittestfilter()  "
      ],
      [
        "testing::internal::s",
        "copedprematureexitfile"
      ],
      [
        "testing::format",
        "count"
      ],
      [
        "testing::internal::(anonymous namespace)::positiveandnegativeunittestfilter::",
        "positiveandnegativeunittestfilter()  "
      ],
      [
        "std::basic_file",
        "buf<>::open()  "
      ],
      [
        "::scopedprematureexitfile",
        "()  "
      ],
      [
        "temp",
        "orar"
      ],
      [
        "std::threa",
        "d::"
      ],
      [
        "stream<>::basic_of",
        "stream()  "
      ],
      [
        "std::basic_of",
        "stream<>::basic_ofstream()  "
      ],
      [
        "ableno",
        "un()  "
      ],
      [
        "testing::internal::scopedprematureexitfile",
        "::scopedprematureexitfile()  "
      ],
      [
        "testing::formatcount",
        "ablenoun()  "
      ],
      [
        "temporar",
        "y_buffer"
      ],
      [
        "f",
        "open"
      ],
      [
        "_io_",
        "fopen"
      ],
      [
        "_io_fopen",
        "  "
      ],
      [
        "tcmalloc::(anonymous namespace)::allocationsitestatstest_deduplication_test",
        "::testbody()  "
      ],
      [
        "_",
        "p"
      ],
      [
        "_",
        "sa"
      ],
      [
        "_",
        "initialize"
      ],
      [
        "a",
        "se"
      ],
      [
        "c",
        "ase"
      ],
      [
        "d",
        "o_"
      ],
      [
        "e",
        "s"
      ],
      [
        "e",
        "<>::get()  "
      ],
      [
        "e",
        "_initialize"
      ],
      [
        "f",
        "in"
      ],
      [
        "g",
        "testi"
      ],
      [
        "g",
        "e_initialize"
      ],
      [
        "h",
        "oo"
      ],
      [
        "k",
        "s_"
      ],
      [
        "r",
        "an"
      ],
      [
        "s",
        "::"
      ],
      [
        "s",
        "ten"
      ],
      [
        "s",
        "[abi:cxx11]()  "
      ],
      [
        "s",
        "initialize"
      ],
      [
        "u",
        "e<>::get()  "
      ],
      [
        "v",
        "al"
      ],
      [
        "v",
        "s[abi:cxx11]()  "
      ],
      [
        "w",
        "  "
      ],
      [
        "z",
        "er"
      ],
      [
        "::",
        "argslist"
      ],
      [
        "st",
        "able"
      ],
      [
        "test",
        "case"
      ],
      [
        "na",
        "me"
      ],
      [
        "interna",
        "l"
      ],
      [
        "testing::",
        "testevent"
      ],
      [
        "or",
        "t<>()  "
      ],
      [
        "or",
        "_p"
      ],
      [
        "mp",
        "le"
      ],
      [
        "testing::internal::",
        "get"
      ],
      [
        "testing::internal::",
        "gtesti"
      ],
      [
        "oc",
        "ation"
      ],
      [
        "alloc",
        "_small"
      ],
      [
        "alloc",
        "buf"
      ],
      [
        "std::",
        "uninitialized_copy"
      ],
      [
        "ion",
        "()  "
      ],
      [
        "er",
        "thread<>()  "
      ],
      [
        "er",
        "s::"
      ],
      [
        "absl::lts_20250814::flags_internal::",
        "(anonymous namespace)::"
      ],
      [
        "absl::lts_20250814::flags_internal::",
        "setprogram"
      ],
      [
        "__",
        "uninit_copy<>()  "
      ],
      [
        "absl::lts_20250814::flags_internal::flag",
        "val"
      ],
      [
        "inv",
        "ocation"
      ],
      [
        "std::__",
        "do_"
      ],
      [
        "<>::",
        "__uninit_copy<>()  "
      ],
      [
        "tcmalloc",
        "internal"
      ],
      [
        "re",
        "cord"
      ],
      [
        "li",
        "sten"
      ],
      [
        "li",
        "zer"
      ],
      [
        "allocat",
        "ion()  "
      ],
      [
        "tcmalloc::tcmalloc_internal::",
        "alloc_small"
      ],
      [
        "_s",
        "ort<>()  "
      ],
      [
        "::allocationsitestatstest_",
        "deduplication_test"
      ],
      [
        "std::_",
        "construct<>()  "
      ],
      [
        "ch",
        "es"
      ],
      [
        "overflo",
        "w  "
      ],
      [
        "mat",
        "ches"
      ],
      [
        "::on",
        "testcase"
      ],
      [
        "std::vector<>::_m_",
        "ran"
      ],
      [
        "xsputn",
        "  "
      ],
      [
        "tcmalloc::tcmalloc_internal::allocationsiterecorder::",
        "record"
      ],
      [
        "allocate",
        "  "
      ],
      [
        "arg",
        "vs[abi:cxx11]()  "
      ],
      [
        "_io_",
        "do"
      ],
      [
        "std::vector<>::vector",
        "<>()  "
      ],
      [
        "_a",
        "<>()  "
      ],
      [
        "_io_file_",
        "do"
      ],
      [
        "_io_file_",
        "overflow  "
      ],
      [
        "_io_file_",
        "xsputn  "
      ],
      [
        "testing::format",
        "test"
      ],
      [
        "count",
        "()  "
      ],
      [
        "testing::internal::(anonymous namespace)::positiveandnegativeunittestfilter::",
        "matches"
      ],
      [
        "tcmalloc::(anonymous namespace)::allocationsitestatstest_deduplication_test",
        "::allocationsitestatstest_deduplication_test"
      ],
      [
        "std::__uninitialized_copy",
        "<>::__uninit_copy<>()  "
      ],
      [
        "std::__uninitialized_copy",
        "_a<>()  "
      ],
      [
        "absl::lts_20250814::strreplaceall",
        "<>()  "
      ],
      [
        "absl::lts_20250814::strreplaceall",
        "[abi:cxx11]()  "
      ],
      [
        "argslist",
        "::argslist"
      ],
      [
        "d_",
        "hoo"
      ],
      [
        "xml",
        "unittestresultprinter"
      ],
      [
        "std::thread::",
        "thread<>()  "
      ],
      [
        "_sa",
        "mple"
      ],
      [
        "ge_initialize",
        "<>()  "
      ],
      [
        "ks_",
        "or_p"
      ],
      [
        "sinitialize",
        "d()  "
      ],
      [
        "stable",
        "_sort<>()  "
      ],
      [
        "name",
        "()  "
      ],
      [
        "testing::testevent",
        "listen"
      ],
      [
        "testing::internal::get",
        "argvs[abi:cxx11]()  "
      ],
      [
        "testing::internal::gtesti",
        "sinitialized()  "
      ],
      [
        "allocbuf",
        "  "
      ],
      [
        "std::uninitialized_copy",
        "<>()  "
      ],
      [
        "absl::lts_20250814::flags_internal::(anonymous namespace)::",
        "argslist::argslist"
      ],
      [
        "absl::lts_20250814::flags_internal::setprogram",
        "invocation"
      ],
      [
        "absl::lts_20250814::flags_internal::flagval",
        "ue<>::get()  "
      ],
      [
        "std::__do_",
        "uninit_copy<>()  "
      ],
      [
        "tcmalloc::tcmalloc_internal::alloc_small",
        "_sample"
      ],
      [
        "::ontestcase",
        "start()  "
      ],
      [
        "std::vector<>::_m_ran",
        "ge_initialize<>()  "
      ],
      [
        "tcmalloc::tcmalloc_internal::allocationsiterecorder::record",
        "allocation()  "
      ],
      [
        "_io_do",
        "allocbuf  "
      ],
      [
        "_io_file_do",
        "allocate  "
      ],
      [
        "testing::internal::(anonymous namespace)::positiveandnegativeunittestfilter::matches",
        "test()  "
      ],
      [
        "tcmalloc::(anonymous namespace)::allocationsitestatstest_deduplication_test::allocationsitestatstest_deduplication_test",
        "()  "
      ],
      [
        "d_hoo",
        "ks_or_p"
      ],
      [
        "testing::testeventlisten",
        "ers::"
      ],
      [
        "absl::lts_20250814::flags_internal::(anonymous namespace)::argslist::argslist",
        "()  "
      ],
      [
        "absl::lts_20250814::flags_internal::setprograminvocation",
        "name()  "
      ],
      [
        "tcmalloc::tcmalloc_internal::alloc_small_sample",
        "d_hooks_or_p"
      ],
      [
        "tcmalloc::tcmalloc_internal::alloc_small_sampled_hooks_or_p",
        "erthread<>()  "
      ],
      [
        "absl::lts_20250814::",
        "setprogram"
      ],
      [
        "usage",
        "message()  "
      ],
      [
        "std::__cxx11::basic_string<>::basic_string",
        "()  "
      ],
      [
        "absl::lts_20250814::setprogram",
        "usagemessage()  "
      ],
      [
        "std::__",
        "basic_"
      ],
      [
        "<>::",
        "open()  "
      ],
      [
        "ate",
        "_internal_"
      ],
      [
        "testen",
        "d()  "
      ],
      [
        "buf",
        "<>::_m_alloc"
      ],
      [
        "file",
        "<>::open()  "
      ],
      [
        "::on",
        "testend()  "
      ],
      [
        "buffer",
        "()  "
      ],
      [
        "std::basic_file",
        "buf<>::_m_alloc"
      ],
      [
        "std::__basic_",
        "file<>::open()  "
      ],
      [
        "ate_internal_",
        "buffer()  "
      ],
      [
        "std::basic_filebuf<>::_m_alloc",
        "ate_internal_buffer()  "
      ],
      [
        "2",
        "()  "
      ],
      [
        "4",
        "()  "
      ],
      [
        "_",
        "d"
      ],
      [
        "_",
        "con"
      ],
      [
        "_",
        "temporary_buffer"
      ],
      [
        "a",
        "v"
      ],
      [
        "a",
        "lizer"
      ],
      [
        "b",
        "st"
      ],
      [
        "c",
        "alloc"
      ],
      [
        "c",
        "ke"
      ],
      [
        "d",
        "su"
      ],
      [
        "e",
        "gistry"
      ],
      [
        "e",
        "cke"
      ],
      [
        "f",
        "write"
      ],
      [
        "f",
        "open()  "
      ],
      [
        "g",
        "test()  "
      ],
      [
        "h",
        "rea"
      ],
      [
        "h",
        "ecke"
      ],
      [
        "i",
        "x"
      ],
      [
        "l",
        "s"
      ],
      [
        "l",
        "_alloc"
      ],
      [
        "n",
        "v"
      ],
      [
        "o",
        "s_"
      ],
      [
        "s",
        "ymbo"
      ],
      [
        "w",
        "no"
      ],
      [
        "::",
        "up"
      ],
      [
        "::",
        "append()  "
      ],
      [
        "::",
        "xmlunittestresultprinter"
      ],
      [
        "::",
        "fopen()  "
      ],
      [
        "ter",
        "()  "
      ],
      [
        "ing",
        "gtest()  "
      ],
      [
        "flag",
        "als"
      ],
      [
        "on",
        "le"
      ],
      [
        "absl::lts_20250814::",
        "string"
      ],
      [
        "absl::lts_20250814::",
        "initialize"
      ],
      [
        "testing::internal::",
        "output"
      ],
      [
        "testing::internal::",
        "pos"
      ],
      [
        "testing::internal::",
        "xmlunittestresultprinter"
      ],
      [
        "oc",
        "hecke"
      ],
      [
        "std::",
        "get"
      ],
      [
        "std::",
        "stable_sort<>()  "
      ],
      [
        "s_internal::",
        "fin"
      ],
      [
        "absl::lts_20250814::flags_internal::",
        "fin"
      ],
      [
        "ions",
        "<>()  "
      ],
      [
        "str",
        "dup"
      ],
      [
        "str",
        "_con"
      ],
      [
        "it",
        "ut"
      ],
      [
        "std::__",
        "stable_sort<>()  "
      ],
      [
        "std::__",
        "str_con"
      ],
      [
        "_m",
        "_start"
      ],
      [
        "erator",
        "()  "
      ],
      [
        "ate",
        "_t"
      ],
      [
        "get",
        "ter()  "
      ],
      [
        "gen",
        "erator()  "
      ],
      [
        "ne",
        "wno"
      ],
      [
        "testing::internal::unittestimpl::",
        "os_"
      ],
      [
        "testing::unittest",
        "::up"
      ],
      [
        "rea",
        "d_"
      ],
      [
        "default",
        "xml"
      ],
      [
        "var",
        "[abi:cxx11]()  "
      ],
      [
        "suite",
        "count()  "
      ],
      [
        "std::_",
        "temporary_buffer"
      ],
      [
        "create",
        "  "
      ],
      [
        "_t",
        "hrea"
      ],
      [
        "tcmalloc::(anonymous namespace)::allocatefromfunction",
        "2()  "
      ],
      [
        "tcmalloc::(anonymous namespace)::allocatefromfunction",
        "4()  "
      ],
      [
        "testing::internal::testeventrepeater",
        "::ontestcasestart()  "
      ],
      [
        "testing::internal::testeventrepeater",
        "::append()  "
      ],
      [
        "cat",
        "<>()  "
      ],
      [
        "pth",
        "read_"
      ],
      [
        "throw",
        "  "
      ],
      [
        "stack_trace_",
        "getter()  "
      ],
      [
        "testing::internal::prettyunittestresultprinter",
        "::ontestcasestart()  "
      ],
      [
        "<>::_",
        "temporary_buffer"
      ],
      [
        "set",
        "defaultxml"
      ],
      [
        "std::thread::",
        "_m_start"
      ],
      [
        "tcmallocinternal",
        "calloc"
      ],
      [
        "tcmallocinternal",
        "newno"
      ],
      [
        "lizer",
        "()  "
      ],
      [
        "testing::formattest",
        "count()  "
      ],
      [
        "testing::formattest",
        "suitecount()  "
      ],
      [
        "testing::testeventlisteners::",
        "append()  "
      ],
      [
        "testing::testeventlisteners::",
        "setdefaultxml"
      ],
      [
        "_d",
        "l_alloc"
      ],
      [
        "_temporary_buffer",
        "<>()  "
      ],
      [
        "av",
        "inggtest()  "
      ],
      [
        "alizer",
        "egistry"
      ],
      [
        "bst",
        "itut"
      ],
      [
        "dsu",
        "bstitut"
      ],
      [
        "fwrite",
        "  "
      ],
      [
        "ix",
        "::fopen()  "
      ],
      [
        "ls",
        "  "
      ],
      [
        "nv",
        "var[abi:cxx11]()  "
      ],
      [
        "symbo",
        "lizer()  "
      ],
      [
        "::xmlunittestresultprinter",
        "()  "
      ],
      [
        "flagals",
        "ochecke"
      ],
      [
        "onle",
        "avinggtest()  "
      ],
      [
        "absl::lts_20250814::string",
        "s_internal::fin"
      ],
      [
        "absl::lts_20250814::initialize",
        "symbolizer()  "
      ],
      [
        "testing::internal::output",
        "flagalsochecke"
      ],
      [
        "testing::internal::pos",
        "ix::fopen()  "
      ],
      [
        "testing::internal::xmlunittestresultprinter",
        "::xmlunittestresultprinter()  "
      ],
      [
        "std::get",
        "_temporary_buffer<>()  "
      ],
      [
        "absl::lts_20250814::flags_internal::fin",
        "alizeregistry"
      ],
      [
        "strdup",
        "  "
      ],
      [
        "std::__str_con",
        "cat<>()  "
      ],
      [
        "ate_t",
        "ls  "
      ],
      [
        "testing::internal::unittestimpl::os_",
        "stack_trace_getter()  "
      ],
      [
        "testing::unittest::up",
        "onleavinggtest()  "
      ],
      [
        "std::_temporary_buffer",
        "<>::_temporary_buffer"
      ],
      [
        "_threa",
        "d()  "
      ],
      [
        "pthread_",
        "create  "
      ],
      [
        "std::thread::_m_start",
        "_thread()  "
      ],
      [
        "tcmallocinternalcalloc",
        "  "
      ],
      [
        "tcmallocinternalnewno",
        "throw  "
      ],
      [
        "testing::testeventlisteners::setdefaultxml",
        "generator()  "
      ],
      [
        "_dl_alloc",
        "ate_tls  "
      ],
      [
        "dsubstitut",
        "ions<>()  "
      ],
      [
        "absl::lts_20250814::strings_internal::fin",
        "dsubstitutions<>()  "
      ],
      [
        "testing::internal::outputflagalsochecke",
        "nvvar[abi:cxx11]()  "
      ],
      [
        "absl::lts_20250814::flags_internal::finalizeregistry",
        "()  "
      ],
      [
        "std::_temporary_buffer<>::_temporary_buffer",
        "()  "
      ],
      [
        "testing::internal::testeventrepeater",
        "::ontestend()  "
      ],
      [
        "testing::internal::prettyunittestresultprinter",
        "::ontestend()  "
      ]
    ]
  }
}