{
  "version": "1.0",
  "truncation": null,
  "padding": null,
  "added_tokens": [
    {
      "id": 0,
      "content": "[UNK]",
      "single_word": false,
      "lstrip": false,
      "rstrip": false,
      "normalized": false,
      "special": true
    }
  ],
  "normalizer": {
    "type": "BertNormalizer",
    "clean_text": true,
    "handle_chinese_chars": true,
    "strip_accents": null,
    "lowercase": true
  },
  "pre_tokenizer": {
    "type": "Split",
    "pattern": {
      "Regex": "::|,|\\(|\\)|\\n"
    },
    "behavior": "Isolated",
    "invert": false
  },
  "post_processor": null,
  "decoder": null,
  "model": {
    "type": "BPE",
    "dropout": null,
    "unk_token": "[UNK]",
    "continuing_subword_prefix": null,
    "end_of_word_suffix": null,
    "fuse_unk": false,
    "byte_fallback": false,
    "ignore_merges": false,
    "vocab": {
      "[UNK]": 0,
      " ": 1,
      "#": 2,
      "(": 3,
      ")": 4,
      "+": 5,
      "-": 6,
      "0": 7,
      "1": 8,
      "2": 9,
      "3": 10,
      "4": 11,
      "5": 12,
      "6": 13,
      "8": 14,
      ":": 15,
      "<": 16,
      "=": 17,
      ">": 18,
      "[": 19,
      "]": 20,
      "_": 21,
      "a": 22,
      "b": 23,
      "c": 24,
      "d": 25,
      "e": 26,
      "f": 27,
      "g": 28,
      "h": 29,
      "i": 30,
      "j": 31,
      "k": 32,
      "l": 33,
      "m": 34,
      "n": 35,
      "o": 36,
      "p": 37,
      "q": 38,
      "r": 39,
      "s": 40,
      "t": 41,
      "u": 42,
      "v": 43,
      "w": 44,
      "x": 45,
      "y": 46,
      "z": 47,
      "{": 48,
      "}": 49,
      "~": 50,
      "::": 51,
      "  ": 52,
      "oc": 53,
      "db": 54,
      "ock": 55,
      "ocks": 56,
      "rocks": 57,
      "rocksdb": 58,
      "st": 59,
      "er": 60,
      "<>": 61,
      "in": 62,
      "on": 63,
      "al": 64,
      "op": 65,
      "std": 66,
      "all": 67,
      "ion": 68,
      "re": 69,
      "le": 70,
      "mp": 71,
      "mpl": 72,
      "alloc": 73,
      "tion": 74,
      "impl": 75,
      "__": 76,
      "at": 77,
      "ab": 78,
      "en": 79,
      "option": 80,
      "able": 81,
      "fi": 82,
      "lo": 83,
      "_st": 84,
      "_m": 85,
      "options": 86,
      "or": 87,
      "tc": 88,
      "an": 89,
      "ol": 90,
      "ba": 91,
      "malloc": 92,
      "tcmalloc": 93,
      "ter": 94,
      "dbimpl": 95,
      "ok": 96,
      "vok": 97,
      "invok": 98,
      "open": 99,
      "con": 100,
      "bas": 101,
      "ar": 102,
      "log": 103,
      "c_st": 104,
      "table": 105,
      "ad": 106,
      "tern": 107,
      "invoke": 108,
      "un": 109,
      "intern": 110,
      "internal": 111,
      "sh": 112,
      "_m_": 113,
      "th": 114,
      "gu": 115,
      "confi": 116,
      "configu": 117,
      "iz": 118,
      "mb": 119,
      "ize": 120,
      "ing": 121,
      "ring": 122,
      "wr": 123,
      "il": 124,
      "ver": 125,
      "ct": 126,
      "ate": 127,
      "read": 128,
      "ator": 129,
      "ts": 130,
      "wri": 131,
      "__invoke": 132,
      "thread": 133,
      "oper": 134,
      "basi": 135,
      "basic_st": 136,
      "basic_string": 137,
      "basic_string<>": 138,
      "fl": 139,
      "can": 140,
      "ymb": 141,
      "olize": 142,
      "tsymb": 143,
      "cantsymb": 144,
      "olize  ": 145,
      "cantsymbolize  ": 146,
      "ma": 147,
      "art": 148,
      "fa": 149,
      "in  ": 150,
      "file": 151,
      "ush": 152,
      "flush": 153,
      "ne": 154,
      "new": 155,
      "se": 156,
      "operator": 157,
      "__c": 158,
      "e<>": 159,
      "_alloc": 160,
      "ed": 161,
      "11": 162,
      "xx": 163,
      "xx11": 164,
      "rable": 165,
      "configurable": 166,
      "__cxx11": 167,
      "all<>": 168,
      "and": 169,
      "ro": 170,
      "sion": 171,
      "__invoke_": 172,
      "version": 173,
      "um": 174,
      "rocksdboptions": 175,
      "mil": 176,
      "nfa": 177,
      "olum": 178,
      "mily": 179,
      "nfamily": 180,
      "olumnfamily": 181,
      "per": 182,
      "_s": 183,
      "impl<>": 184,
      "_internal": 185,
      "columnfamily": 186,
      "low": 187,
      "tcmalloc_internal": 188,
      "slow": 189,
      "tcmallocinternal": 190,
      "slow_alloc": 191,
      "_sm": 192,
      "slow_alloc_sm": 193,
      "slow_alloc_small<>": 194,
      "tcmallocinternalnew": 195,
      "tcmallocinternalnew  ": 196,
      "he": 197,
      "li": 198,
      "ler": 199,
      "ctor": 200,
      "ger": 201,
      "ut": 202,
      "ction": 203,
      "par": 204,
      "me": 205,
      "_ma": 206,
      "ser": 207,
      "lib": 208,
      "configure": 209,
      "__invoke_impl<>": 210,
      "logger": 211,
      "andler": 212,
      "logv": 213,
      "fun": 214,
      "te": 215,
      "_start": 216,
      "__lib": 217,
      "c_start": 218,
      "_main  ": 219,
      "_start  ": 220,
      "__libc_start": 221,
      "__libc_start_main  ": 222,
      "main  ": 223,
      "ru": 224,
      "fro": 225,
      "from": 226,
      "ap": 227,
      "are": 228,
      "set": 229,
      "cre": 230,
      "ist": 231,
      "function": 232,
      "create": 233,
      "lock": 234,
      "ve": 235,
      "r<>": 236,
      "ac": 237,
      "co": 238,
      "write": 239,
      "block": 240,
      "bu": 241,
      "ruct": 242,
      "struct": 243,
      "e_": 244,
      "construct": 245,
      "buil": 246,
      "de": 247,
      "_m_invoke": 248,
      "bg": 249,
      "construct<>": 250,
      "mem": 251,
      "app": 252,
      "map": 253,
      "build": 254,
      "_m_construct<>": 255,
      "ge": 256,
      "versionset": 257,
      "writer": 258,
      "ck": 259,
      "ob": 260,
      "end": 261,
      "rocksdboptionspar": 262,
      "rocksdboptionsparser": 263,
      "it": 264,
      "er<>": 265,
      "__invoke<>": 266,
      "_invok": 267,
      "_invoker<>": 268,
      "vector": 269,
      "po": 270,
      "tablefile": 271,
      "memtable": 272,
      "_p": 273,
      "qu": 274,
      "_t": 275,
      "_h": 276,
      "writablefile": 277,
      "back": 278,
      "sist": 279,
      "ith": 280,
      "based": 281,
      "versioned": 282,
      "run": 283,
      "ithandler": 284,
      "versionedithandler": 285,
      "persist": 286,
      "persistrocksdboptions": 287,
      "_r": 288,
      "cf": 289,
      "blockbased": 290,
      "blockbasedtable": 291,
      "share": 292,
      "shared": 293,
      "b_t": 294,
      "_rb_t": 295,
      "_rb_tre": 296,
      "_rb_tree<>": 297,
      "allocate": 298,
      "ind": 299,
      "lper": 300,
      "writablefilewriter": 301,
      "init": 302,
      "frommap": 303,
      "reco": 304,
      "recover": 305,
      "put": 306,
      "pool": 307,
      "threadpool": 308,
      "threadpoolimpl": 309,
      "helper": 310,
      "dboptions": 311,
      "builder": 312,
      "no": 313,
      "bgthread": 314,
      "cu": 315,
      "la": 316,
      "und": 317,
      "factor": 318,
      "_b": 319,
      "gro": 320,
      "backgro": 321,
      "ind<>": 322,
      "_bind<>": 323,
      "background": 324,
      "da": 325,
      "{la": 326,
      "mbda": 327,
      "{lambda": 328,
      "ty": 329,
      "flushmemtable": 330,
      "append": 331,
      "#1": 332,
      "#1}": 333,
      "_function": 334,
      "factory": 335,
      "oo": 336,
      "configurablehelper": 337,
      "utput": 338,
      "ooutput": 339,
      "ooutputfile": 340,
      "function<>": 341,
      "parse": 342,
      "ial": 343,
      "rep": 344,
      "andler<>": 345,
      "_handler<>": 346,
      "_function_handler<>": 347,
      "env": 348,
      "__invoke_r<>": 349,
      "job": 350,
      "if": 351,
      "ialize": 352,
      "flushjob": 353,
      "dat": 354,
      "columnfamilyoptions": 355,
      "pr": 356,
      "du": 357,
      "dump": 358,
      "_no": 359,
      "configurefrommap": 360,
      "cac": 361,
      "call": 362,
      "ader": 363,
      "envlogger": 364,
      "fo": 365,
      "uni": 366,
      "uniqu": 367,
      "info": 368,
      "cache": 369,
      "configureoptions": 370,
      "data": 371,
      "_bas": 372,
      "onc": 373,
      "columnfamilydata": 374,
      "utable": 375,
      "get": 376,
      "string": 377,
      "stat": 378,
      "mutable": 379,
      "tr<>": 380,
      "createcolumnfamily": 381,
      "repare": 382,
      "stats": 383,
      "_impl<>": 384,
      "ate_impl<>": 385,
      "_state_impl<>": 386,
      "_m_run": 387,
      "_m_invoke<>": 388,
      "header": 389,
      "pe": 390,
      "__shared": 391,
      "im": 392,
      "optionsfile": 393,
      "initialize": 394,
      "proper": 395,
      "ex": 396,
      "writeoptionsfile": 397,
      "na": 398,
      "tr": 399,
      "logheader": 400,
      "_ex": 401,
      "ecu": 402,
      "_prepare": 403,
      "_execu": 404,
      "_prepare_execu": 405,
      "_prepare_execution": 406,
      "vector<>": 407,
      "mak": 408,
      "add": 409,
      "reg": 410,
      "regist": 411,
      "type": 412,
      "ify": 413,
      "iter": 414,
      "unique<>": 415,
      "ator<>": 416,
      "inser": 417,
      "optiontype": 418,
      "optiontypeinfo": 419,
      "__new": 420,
      "_allocator<>": 421,
      "__new_allocator<>": 422,
      "wor": 423,
      "work": 424,
      "insert": 425,
      "_vector": 426,
      "_vector_bas": 427,
      "cfoptions": 428,
      "verify": 429,
      "wrap": 430,
      "wrapper": 431,
      "register": 432,
      "make_": 433,
      "name": 434,
      "_ptr<>": 435,
      "bgthreadwrapper": 436,
      "__call<>": 437,
      "bgwork": 438,
      "backgroundcall": 439,
      "bgworkflush": 440,
      "backgroundcallflush": 441,
      "immutable": 442,
      "us": 443,
      "unt": 444,
      "count": 445,
      "base": 446,
      "es": 447,
      "blockbasedtablebuilder": 448,
      "fromfile": 449,
      "backgroundflush": 450,
      "stooutputfile": 451,
      "flushmemtablestooutputfile": 452,
      "flushmemtablestooutputfiles": 453,
      "rocksdboptionsfromfile": 454,
      "verifyrocksdboptionsfromfile": 455,
      "tooutputfile": 456,
      "flushmemtabletooutputfile": 457,
      "cop": 458,
      "de<>": 459,
      "as": 460,
      "_count": 461,
      "ace": 462,
      "_vector_base<>": 463,
      "blockbasedtablefactory": 464,
      "si": 465,
      "_onc": 466,
      "ly": 467,
      "_m_allocate": 468,
      "apply": 469,
      "_node": 470,
      "leve": 471,
      "level": 472,
      "make_unique<>": 473,
      "mo": 474,
      "immutabledboptions": 475,
      "logand": 476,
      "sp": 477,
      " name": 478,
      "ymo": 479,
      "onymo": 480,
      "anonymo": 481,
      "us name": 482,
      "space": 483,
      "anonymous name": 484,
      "anonymous namespace": 485,
      "iterate": 486,
      "dequ": 487,
      "columnfamilyset": 488,
      "for": 489,
      "copy": 490,
      "versionedithandlerbase": 491,
      "logandapply": 492,
      "ash": 493,
      "_node<>": 494,
      "level0": 495,
      "writelevel0": 496,
      "property": 497,
      "writelevel0table": 498,
      "ect": 499,
      "ject": 500,
      "object": 501,
      "om": 502,
      "section": 503,
      "endsection": 504,
      "andinit": 505,
      "createcf": 506,
      "createcfandinit": 507,
      "fromstring": 508,
      "createfromstring": 509,
      "_m_create": 510,
      "_hash": 511,
      "_hashtable": 512,
      "buildtable": 513,
      "copy<>": 514,
      "configurablecfoptions": 515,
      "lru": 516,
      "lere": 517,
      "__shared_count": 518,
      "ag": 519,
      "flag": 520,
      "__shared_count<>": 521,
      "so": 522,
      "tab": 523,
      "stom": 524,
      "custom": 525,
      "tablere": 526,
      "ord": 527,
      "empl": 528,
      "emplac": 529,
      "ul": 530,
      "call_onc": 531,
      "call_once<>": 532,
      "internalstats": 533,
      "e_flag": 534,
      "once_flag": 535,
      "_prepare_execution<>": 536,
      "ti": 537,
      "_dequ": 538,
      "_deque_": 539,
      "__shared_ptr<>": 540,
      "man": 541,
      "est": 542,
      "ai": 543,
      "pai": 544,
      "blockbuilder": 545,
      "dboptionsconfigurable": 546,
      "ifest": 547,
      "getc": 548,
      "emplace_": 549,
      "form": 550,
      "age": 551,
      "serialize": 552,
      "to": 553,
      "configurefrommap<>": 554,
      "_hashtable<>": 555,
      "parseoption": 556,
      "tablecache": 557,
      "properti": 558,
      "try": 559,
      "getcolumnfamily": 560,
      "lrucache": 561,
      "optionsfrommap": 562,
      "_m_re": 563,
      "getcolumnfamilyoptionsfrommap": 564,
      "propertyblockbuilder": 565,
      "shared_ptr<>": 566,
      "insert<>": 567,
      "files": 568,
      "ary": 569,
      "meoptions": 570,
      "configureso": 571,
      "configuresomeoptions": 572,
      "base<>": 573,
      "_map": 574,
      "_deque_base<>": 575,
      "pair<>": 576,
      "configureoption": 577,
      "manifest": 578,
      "operator=": 579,
      "_m_insert": 580,
      "registeroptions": 581,
      "ta": 582,
      "cord": 583,
      "str": 584,
      "izable": 585,
      "posi": 586,
      "customizable": 587,
      "posix": 588,
      "record": 589,
      "_m_insert_": 590,
      "pat": 591,
      "list": 592,
      "properties": 593,
      "map<>": 594,
      "_insert<>": 595,
      "_m_copy<>": 596,
      "ess": 597,
      "rary": 598,
      "lete": 599,
      "library": 600,
      "objectlibrary": 601,
      "_m_create_node<>": 602,
      "orage": 603,
      "em": 604,
      "ocess": 605,
      "back<>": 606,
      "emplace_back<>": 607,
      "asconfigurable": 608,
      "ptr<>": 609,
      "writes": 610,
      "process": 611,
      "manifestwrites": 612,
      "processmanifestwrites": 613,
      "tail": 614,
      "format": 615,
      "_m_m": 616,
      "versionbuilder": 617,
      "ini": 618,
      "ard": 619,
      "detail": 620,
      "fini": 621,
      "finish": 622,
      "alloc_insert<>": 623,
      "_m_realloc_insert<>": 624,
      "_fun": 625,
      "di": 626,
      "clo": 627,
      "close": 628,
      "configurecustomizable": 629,
      "configurecustomizableoption": 630,
      "memtablere": 631,
      "memtablerep": 632,
      "comp": 633,
      "unique_": 634,
      "io": 635,
      "utate": 636,
      "_m_mutate": 637,
      "_a": 638,
      "memtablerepfactory": 639,
      "ced": 640,
      "__detail": 641,
      "res": 642,
      "id": 643,
      "t_": 644,
      "gthread": 645,
      "__gthread": 646,
      "_once": 647,
      "__gthread_once": 648,
      "ager": 649,
      "_m_get": 650,
      "propertiesblock": 651,
      "_m_get_node": 652,
      "entry": 653,
      "ered": 654,
      "str_": 655,
      "_copy<>": 656,
      "cfstats": 657,
      "addfactory": 658,
      "tablereader": 659,
      "abs": 660,
      "shard": 661,
      "absl": 662,
      "gn": 663,
      "_alloc_node": 664,
      "van": 665,
      "advan": 666,
      "cedcolumnfamilyoptions": 667,
      "advancedcolumnfamilyoptions": 668,
      "getstring": 669,
      "_ptr": 670,
      "tin": 671,
      "builtin": 672,
      "registerbuiltin": 673,
      "ren": 674,
      "_base": 675,
      "serializeoptions": 676,
      "recovery": 677,
      "dboptionsasconfigurable": 678,
      "_m_as": 679,
      "sign": 680,
      "_m_assign": 681,
      "02": 682,
      "08": 683,
      "14": 684,
      "202": 685,
      "508": 686,
      "_202": 687,
      "lts": 688,
      "50814": 689,
      "_20250814": 690,
      "lts_20250814": 691,
      "cal": 692,
      "hand": 693,
      "p_count": 694,
      "operator+": 695,
      "_sp_count": 696,
      "forrecovery": 697,
      "logandapplyforrecovery": 698,
      "handle": 699,
      "_sp_counted": 700,
      "ra": 701,
      "ch": 702,
      "mer": 703,
      "merge": 704,
      "buf": 705,
      "operator+<>": 706,
      "yst": 707,
      "stall": 708,
      "mergeoperator": 709,
      "object<>": 710,
      "addrecord": 711,
      "filesyst": 712,
      "rren": 713,
      "faul": 714,
      "defaul": 715,
      "rrent": 716,
      "uto": 717,
      "ascustom": 718,
      "_auto": 719,
      "ip": 720,
      "mutablecfoptions": 721,
      "path": 722,
      "find": 723,
      "~dbimpl": 724,
      "addfactory<>": 725,
      "_m_append": 726,
      "lac": 727,
      "tim": 728,
      "inp": 729,
      "timer": 730,
      "_inp": 731,
      "_ptr_inp": 732,
      "_sp_counted_ptr_inp": 733,
      "filesystem": 734,
      "lace<>": 735,
      "_sp_counted_ptr_inplace<>": 736,
      "unord": 737,
      "writepropertiesblock": 738,
      "resul": 739,
      "unordered": 740,
      "_storage": 741,
      "_vector_base": 742,
      "_m_create_storage": 743,
      "wal": 744,
      "perio": 745,
      "periodi": 746,
      "registeroptions<>": 747,
      "[]": 748,
      "operator[]": 749,
      "delete": 750,
      "__un": 751,
      "unordered_map": 752,
      "val": 753,
      "kip": 754,
      "ptr": 755,
      "arena": 756,
      "obso": 757,
      "kiplist": 758,
      "obsolete": 759,
      "ce": 760,
      "initialized": 761,
      "default_": 762,
      "buff": 763,
      "ent": 764,
      "iterator": 765,
      ":c": 766,
      "[ab": 767,
      "i:c": 768,
      "storage": 769,
      "reser": 770,
      "xx11]": 771,
      "versionstorage": 772,
      "[abi:c": 773,
      "versionstorageinfo": 774,
      "[abi:cxx11]": 775,
      "dbpath": 776,
      "sharded": 777,
      "reserve": 778,
      "shared<>": 779,
      "make_shared<>": 780,
      "dele": 781,
      "_m_insert_unique<>": 782,
      "skiplist": 783,
      "ternentry": 784,
      "patternentry": 785,
      "datab": 786,
      "format_internal": 787,
      "str_format_internal": 788,
      "optionstring": 789,
      "sharedptr<>": 790,
      "dumpstats": 791,
      "ascustomsharedptr<>": 792,
      "posixfilesystem": 793,
      "be": 794,
      "ase": 795,
      "gen": 796,
      "hy": 797,
      "phy": 798,
      "install": 799,
      "memtablelist": 800,
      "current": 801,
      "sical": 802,
      "skiplistfactory": 803,
      "physical": 804,
      "physicalrecord": 805,
      "newiterator": 806,
      "itphysicalrecord": 807,
      "emitphysicalrecord": 808,
      "prepare": 809,
      "anager": 810,
      "edu": 811,
      "chedu": 812,
      "_construct<>": 813,
      "sli": 814,
      "_m_insert_<>": 815,
      "obsoletefiles": 816,
      "slice": 817,
      "che": 818,
      "pop": 819,
      "tableproperty": 820,
      "getoptionstring": 821,
      "addtableproperty": 822,
      "ulate": 823,
      "check": 824,
      "populate": 825,
      "_cache": 826,
      "sst": 827,
      "schedu": 828,
      "_alloc<>": 829,
      "_hashtable_alloc<>": 830,
      "lru_cache": 831,
      "results": 832,
      "sharedobject<>": 833,
      "valid": 834,
      "cy": 835,
      "node<>": 836,
      "initializeoptions": 837,
      "san": 838,
      "tablebuilder": 839,
      "izeoptions": 840,
      "writeto": 841,
      "itizeoptions": 842,
      "_m_allocate_": 843,
      "sanitizeoptions": 844,
      "writetowal": 845,
      "edoptions": 846,
      "dumpcfstats": 847,
      "unordered_map<>": 848,
      "validate": 849,
      "te<>": 850,
      "unique_ptr<>": 851,
      "default_dele": 852,
      "validateoptions": 853,
      "default_delete<>": 854,
      "ies": 855,
      "getstringproperty": 856,
      "findtable": 857,
      "newtablebuilder": 858,
      "gettablereader": 859,
      "make": 860,
      "flushresults": 861,
      "memtableflushresults": 862,
      "tryinstall": 863,
      "tryinstallmemtableflushresults": 864,
      "inde": 865,
      "database": 866,
      "populatedatabase": 867,
      "index": 868,
      "su": 869,
      "may": 870,
      "rea": 871,
      "registeredoptions": 872,
      "ry": 873,
      "registry": 874,
      "objectregistry": 875,
      "sform": 876,
      "yp": 877,
      "ansform": 878,
      "transform": 879,
      "slicetransform": 880,
      "stro": 881,
      "newtablereader": 882,
      "destro": 883,
      "destroy": 884,
      "gra": 885,
      "hin": 886,
      "hist": 887,
      "ogra": 888,
      "filehist": 889,
      "emplace_hin": 890,
      "cfstatsperiodi": 891,
      "handlecfstatsperiodi": 892,
      "__uninitialized": 893,
      "ogram": 894,
      "filehistogram": 895,
      "handlecfstatsperiodic": 896,
      "_options": 897,
      "elper": 898,
      "~unique_": 899,
      "arator": 900,
      "e_info": 901,
      "_typ": 902,
      "_base<>": 903,
      "_options_typ": 904,
      "~unique_ptr": 905,
      "_options_type_info": 906,
      "nofilehistogram": 907,
      "deque<>": 908,
      "comparator": 909,
      "dumpcfstatsnofilehistogram": 910,
      "ation": 911,
      "maybe": 912,
      "fs": 913,
      "_manager": 914,
      "newdb": 915,
      "_function_base": 916,
      "manager": 917,
      "closehelper": 918,
      "_base_manager": 919,
      "sstfile": 920,
      "_base_manager<>": 921,
      "_m_initialize": 922,
      "_scop": 923,
      "deque": 924,
      "_deque_base": 925,
      "_m_initialize_map": 926,
      "_scoped": 927,
      "ev": 928,
      "cfoptionsasconfigurable": 929,
      "getstringfrom": 930,
      "destroydb": 931,
      "sstfilemanager": 932,
      "tostring": 933,
      "ort": 934,
      "tch": 935,
      "init_copy<>": 936,
      "factories": 937,
      "kimpl": 938,
      "closeimpl": 939,
      "scheduler": 940,
      "cat": 941,
      "__str_": 942,
      "load": 943,
      "concat": 944,
      "time": 945,
      "__str_concat": 946,
      "__str_concat<>": 947,
      "_m_emplace_hin": 948,
      "blockbasedtableoptions": 949,
      "cacheus": 950,
      "mutabledboptions": 951,
      "ageoptions": 952,
      "t_unique<>": 953,
      "_auto_node": 954,
      "_auto_node<>": 955,
      "_m_emplace_hint_unique<>": 956,
      "cacheusageoptions": 957,
      "ey": 958,
      "key": 959,
      "buffer": 960,
      "cl": 961,
      "nc": 962,
      "sin": 963,
      "ync": 964,
      "one_": 965,
      "_m_cl": 966,
      "sinkimpl": 967,
      "one_node<>": 968,
      "_m_clone_node<>": 969,
      "state": 970,
      "_m_allocate_node<>": 971,
      "ream": 972,
      "col": 973,
      "ets": 974,
      "logflush": 975,
      "_m_construct": 976,
      "buck": 977,
      "sharedcache": 978,
      "_m_allocate_buck": 979,
      "makesharedcache": 980,
      "colle": 981,
      "_m_allocate_buckets": 982,
      "he<>": 983,
      "newlrucache": 984,
      "lrucacheoptions": 985,
      "newsharedobject<>": 986,
      "verifydboptions": 987,
      "emplace<>": 988,
      "sstfilemanagerimpl": 989,
      "tom": 990,
      "stream": 991,
      "anifest": 992,
      "tablefactory": 993,
      "writecurrent": 994,
      "statetom": 995,
      "writecurrentstatetom": 996,
      "writecurrentstatetomanifest": 997,
      "hash": 998,
      "pair": 999,
      "pu": 1000,
      "levelstats": 1001,
      "_m_construct_node<>": 1002,
      "sync": 1003,
      "gener": 1004,
      "registerbuiltinmemtablerepfactory": 1005,
      "raw": 1006,
      "dblock": 1007,
      "erthread": 1008,
      "configurablemutablecfoptions": 1009,
      "workerthread": 1010,
      "timebased": 1011,
      "workerthreadtimebased": 1012,
      "up": 1013,
      "cache<>": 1014,
      "shardedcache": 1015,
      "shardedcache<>": 1016,
      "by": 1017,
      "do": 1018,
      "port": 1019,
      "ali": 1020,
      "ref": 1021,
      "writeimpl": 1022,
      "compres": 1023,
      "_immutable": 1024,
      "reset": 1025,
      "ed<>": 1026,
      "writeblock": 1027,
      "mapstats": 1028,
      "cf_immutable": 1029,
      "_m_rehash": 1030,
      "cf_immutable_options_type_info": 1031,
      "ype": 1032,
      "tableproperties": 1033,
      "_m_rep": 1034,
      "guard": 1035,
      "parset": 1036,
      "parsetype": 1037,
      "int": 1038,
      "readpropertiesblock": 1039,
      "dboptionsfrommap": 1040,
      "dumpcf": 1041,
      "getdboptionsfrommap": 1042,
      "posixwritablefile": 1043,
      "fswritablefile": 1044,
      "lace": 1045,
      "filename": 1046,
      "_m_replace": 1047,
      "<<": 1048,
      "_guard": 1049,
      "rector": 1050,
      "__allocate": 1051,
      "ency": 1052,
      "consist": 1053,
      "operator<<": 1054,
      "locked": 1055,
      "director": 1056,
      "dbpaths": 1057,
      "checkconsist": 1058,
      "dumpcfmapstats": 1059,
      "_guarded<>": 1060,
      "__allocate_guarded<>": 1061,
      "checkconsistency": 1062,
      "bl": 1063,
      "esh": 1064,
      "son": 1065,
      "tableproperti": 1066,
      "readtableproperti": 1067,
      "writebuff": 1068,
      "blocks": 1069,
      "eshelper": 1070,
      "readtablepropertieshelper": 1071,
      "writebuffered": 1072,
      "registerbuiltinmergeoperator": 1073,
      "registerbuiltinmergeoperators": 1074,
      "loc": 1075,
      "parsestruct": 1076,
      "unique": 1077,
      "stringto": 1078,
      "fer": 1079,
      "ical": 1080,
      "rge": 1081,
      "sw": 1082,
      "logical": 1083,
      "tablefactories": 1084,
      "flushlocked": 1085,
      "registertablefactories": 1086,
      "purge": 1087,
      "blocksize": 1088,
      "logicalblocksize": 1089,
      "purgeobsoletefiles": 1090,
      "icy": 1091,
      "pol": 1092,
      "xt": 1093,
      "conte": 1094,
      "flushblock": 1095,
      "__uninitialized_": 1096,
      "policy": 1097,
      "sedblock": 1098,
      "writemaybe": 1099,
      "compressedblock": 1100,
      "writemaybecompressedblock": 1101,
      "push": 1102,
      "sequ": 1103,
      "site": 1104,
      "entlogger": 1105,
      "ential": 1106,
      "validateoptionsby": 1107,
      "eventlogger": 1108,
      "flushblockpolicy": 1109,
      "sequential": 1110,
      "validateoptionsbytable": 1111,
      "ave": 1112,
      "gne": 1113,
      "save": 1114,
      "unac": 1115,
      "not": 1116,
      "counted": 1117,
      "aligne": 1118,
      "unaccounted": 1119,
      "kscheduler": 1120,
      "osite": 1121,
      "ctas": 1122,
      "ctor<>": 1123,
      "composite": 1124,
      "periodictas": 1125,
      "local": 1126,
      "notify": 1127,
      "compositeenv": 1128,
      "periodictaskscheduler": 1129,
      "dumpdb": 1130,
      "getstringfromdboptions": 1131,
      "stringtomap": 1132,
      "push_": 1133,
      "_un": 1134,
      "itch": 1135,
      "_m_copy": 1136,
      "newwritablefile": 1137,
      "writestall": 1138,
      "_rb_tree": 1139,
      "formatsinkimpl": 1140,
      "addfactoryentry": 1141,
      "preparelevelstats": 1142,
      "switch": 1143,
      "push_back": 1144,
      "switchmemtable": 1145,
      "ux": 1146,
      "ere": 1147,
      "atch": 1148,
      "_a<>": 1149,
      "tostring[abi:cxx11]": 1150,
      "lin": 1151,
      "dbconfigurable": 1152,
      "mutabledbconfigurable": 1153,
      "_m_allocate_node": 1154,
      "_m_allocate_map": 1155,
      "_nodes": 1156,
      "_m_create_nodes": 1157,
      "_scoped_node": 1158,
      "_scoped_node<>": 1159,
      "saveto": 1160,
      "batch": 1161,
      "json": 1162,
      "urrent": 1163,
      "jsonwriter": 1164,
      "__do": 1165,
      "aten": 1166,
      "uninitialized": 1167,
      "writebatch": 1168,
      "fore": 1169,
      "copy_a<>": 1170,
      "__uninit_copy<>": 1171,
      "__uninitialized_copy<>": 1172,
      "directory": 1173,
      "context": 1174,
      "__uninitialized_copy_a<>": 1175,
      "_uninit_copy<>": 1176,
      "__do_uninit_copy<>": 1177,
      "uninitialized_copy<>": 1178,
      "bstr": 1179,
      "status": 1180,
      "substr": 1181,
      "_re": 1182,
      "use": 1183,
      "err": 1184,
      "enced": 1185,
      "basere": 1186,
      "threads": 1187,
      "newobject<>": 1188,
      "backgroundthreads": 1189,
      "getimpl": 1190,
      "_m_insert_unique_": 1191,
      "uniqueid": 1192,
      "ferenced": 1193,
      "basereferenced": 1194,
      "basereferencedversionbuilder": 1195,
      "_io": 1196,
      "_m_init": 1197,
      "setc": 1198,
      "_m_create<>": 1199,
      "posixenv": 1200,
      "_functor<>": 1201,
      "getstringfromcolumnfamilyoptions": 1202,
      "loadsharedobject<>": 1203,
      "_io_": 1204,
      "_m_init_functor<>": 1205,
      "indexbuilder": 1206,
      "cr": 1207,
      "etch": 1208,
      "concurrent": 1209,
      "lrucacheshard": 1210,
      "_map_base<>": 1211,
      "concurrentarena": 1212,
      "action": 1213,
      "ew": 1214,
      "enth": 1215,
      "malloc  ": 1216,
      "tcmallocinternalmalloc  ": 1217,
      "print": 1218,
      "compaction": 1219,
      "ascustomraw": 1220,
      "elpers": 1221,
      "eventh": 1222,
      "aligned": 1223,
      "atenew": 1224,
      "ascustomrawptr<>": 1225,
      "eventhelpers": 1226,
      "c_": 1227,
      "start": 1228,
      "basic_": 1229,
      "columnfamilyhandle": 1230,
      "creation": 1231,
      "tablefilecreation": 1232,
      "verifycfoptions": 1233,
      "registerdbpaths": 1234,
      "logandnotify": 1235,
      "finished": 1236,
      "preparewrite": 1237,
      "loadtable": 1238,
      "collect": 1239,
      "_reuse": 1240,
      "error": 1241,
      "columnfamilyhandleimpl": 1242,
      "tablefilecreationfinished": 1243,
      "logandnotifytablefilecreationfinished": 1244,
      "_or": 1245,
      "iteration": 1246,
      "result": 1247,
      "checkiteration": 1248,
      "shardedcachebase": 1249,
      "flushblockpolicyfactory": 1250,
      "checkiterationresult": 1251,
      "umb": 1252,
      "filere": 1253,
      "newmemtable": 1254,
      "and_copy<>": 1255,
      "perversion": 1256,
      "constructnewmemtable": 1257,
      "posixhelper": 1258,
      "deletescheduler": 1259,
      "deleteunaccounted": 1260,
      "_m_allocate_and_copy<>": 1261,
      "superversion": 1262,
      "sequentialfile": 1263,
      "urrentfile": 1264,
      "setcurrentfile": 1265,
      "umber": 1266,
      "with": 1267,
      "of": 1268,
      "serializestruct": 1269,
      "registerbuiltinslicetransform": 1270,
      "deleteobsoletefiles": 1271,
      "schedule": 1272,
      "ition": 1273,
      "enum": 1274,
      "_mutable": 1275,
      "flush<>": 1276,
      "createwal": 1277,
      "cf_mutable": 1278,
      "lruhandle": 1279,
      "formatraw": 1280,
      "ioerror": 1281,
      "_aux": 1282,
      "_m_assign<>": 1283,
      "findobsoletefiles": 1284,
      "refand": 1285,
      "_m_rehash_aux": 1286,
      "_reuse_or": 1287,
      "enum<>": 1288,
      "cf_mutable_options_type_info": 1289,
      "lruhandletable": 1290,
      "formatrawsinkimpl": 1291,
      "_reuse_or_alloc_node": 1292,
      "eu": 1293,
      "queu": 1294,
      "versionedit": 1295,
      "eventloggerstream": 1296,
      "ine": 1297,
      "meta": 1298,
      "ack": 1299,
      "details": 1300,
      "checkconsistencydetails": 1301,
      "fn": 1302,
      "need": 1303,
      "_allocnode<>": 1304,
      "edit": 1305,
      "versionbe": 1306,
      "createversionbe": 1307,
      "parsefn": 1308,
      "ifneed": 1309,
      "applyedit": 1310,
      "maybecreateversionbe": 1311,
      "tablefactoryparsefn": 1312,
      "generate": 1313,
      "foreapplyedit": 1314,
      "filereader": 1315,
      "ifneeded": 1316,
      "maybecreateversionbeforeapplyedit": 1317,
      "cbackgroundthreads": 1318,
      "handler": 1319,
      "lter": 1320,
      "pport": 1321,
      "uf": 1322,
      "incbackgroundthreads": 1323,
      "filter": 1324,
      "newlogger": 1325,
      "node": 1326,
      "headerv": 1327,
      "immutableoptions": 1328,
      "_m_manager": 1329,
      "registerbuiltincomparator": 1330,
      "default": 1331,
      "support": 1332,
      "_m_insert_unique_node": 1333,
      "loadtablehandler": 1334,
      "incbackgroundthreadsifneeded": 1335,
      "registerbuiltincomparators": 1336,
      "loadtablehandlers": 1337,
      "mary": 1338,
      "rand": 1339,
      "ummary": 1340,
      "filesummary": 1341,
      "valu": 1342,
      "dumpdbfilesummary": 1343,
      " <>": 1344,
      "_insert": 1345,
      "openwritablefile": 1346,
      "dumpsupport": 1347,
      "operator<< <>": 1348,
      "_insert_base<>": 1349,
      "dumpsupportinfo": 1350,
      "thread<>": 1351,
      "lockiter": 1352,
      "dren": 1353,
      "hil": 1354,
      "part": 1355,
      "sum": 1356,
      "ater": 1357,
      "_m_emplace<>": 1358,
      "filecheck": 1359,
      "blockiter": 1360,
      "getchil": 1361,
      "buf<>": 1362,
      "sstpart": 1363,
      "collector": 1364,
      "syncmanifest": 1365,
      "generater": 1366,
      "printlevelstats": 1367,
      "compactionfilter": 1368,
      "itioner": 1369,
      "sumgen": 1370,
      "filechecksumgen": 1371,
      "getchildren": 1372,
      "sstpartitioner": 1373,
      "stkey": 1374,
      "lastkey": 1375,
      "addwith": 1376,
      "addwithlastkey": 1377,
      "number": 1378,
      "dbid": 1379,
      "lockfile": 1380,
      "trim": 1381,
      "immutablecfoptions": 1382,
      "iostatus": 1383,
      "fswritablefileptr": 1384,
      "dbpaths[abi:cxx11]": 1385,
      "value": 1386,
      "over": 1387,
      "pref": 1388,
      "ure": 1389,
      "dbfile": 1390,
      "internalkey": 1391,
      "threadlocal": 1392,
      "filedele": 1393,
      "lim": 1394,
      "temp": 1395,
      "setup": 1396,
      "serializetype": 1397,
      "writebatchinternal": 1398,
      "prefetch": 1399,
      "filedeletion": 1400,
      "cle": 1401,
      "duniqueid": 1402,
      "mist": 1403,
      "allocatenew": 1404,
      "file_": 1405,
      "semist": 1406,
      "loggerfrom": 1407,
      "createloggerfrom": 1408,
      "ructure": 1409,
      "flags": 1410,
      "serializeenum<>": 1411,
      "list<>": 1412,
      "makefilename": 1413,
      "reset<>": 1414,
      "_io_file_": 1415,
      "startperiodictaskscheduler": 1416,
      "duniqueidgen": 1417,
      "semistructure": 1418,
      "createloggerfromoptions": 1419,
      "semistructureduniqueidgen": 1420,
      "datablockiter": 1421,
      "date": 1422,
      "fd": 1423,
      "flow": 1424,
      "logbuffer": 1425,
      "_m_insert<>": 1426,
      "seed": 1427,
      "deleteobsolete": 1428,
      "_thread": 1429,
      "ened": 1430,
      "short": 1431,
      "reader": 1432,
      "addwithlastkeyimpl": 1433,
      "enedindexbuilder": 1434,
      "shortenedindexbuilder": 1435,
      "ostream": 1436,
      "ped": 1437,
      "spo": 1438,
      "sput": 1439,
      "xsput": 1440,
      "~writer": 1441,
      "~__shared": 1442,
      "~__shared_count": 1443,
      "~sstfilemanagerimpl": 1444,
      "~columnfamilyhandleimpl": 1445,
      "alldbpaths[abi:cxx11]": 1446,
      "lease": 1447,
      "_m_di": 1448,
      "code": 1449,
      "builddboptions": 1450,
      "memtableinser": 1451,
      "allocatealigned": 1452,
      "typed": 1453,
      "jobcontext": 1454,
      "getlogicalblocksize": 1455,
      "_m_release": 1456,
      "dir": 1457,
      "_sp_counted_base<>": 1458,
      "stream<>": 1459,
      "logicalblocksizecache": 1460,
      "sequentialfilereader": 1461,
      "dumpdbstats": 1462,
      "collectalldbpaths[abi:cxx11]": 1463,
      "overflow": 1464,
      "threadlocalptr": 1465,
      "flags_internal": 1466,
      "spose": 1467,
      "xsputn": 1468,
      "~__shared_ptr": 1469,
      "_m_dispose": 1470,
      "memtableinserter": 1471,
      "see": 1472,
      "blockiter<>": 1473,
      "32": 1474,
      "fetch": 1475,
      "ge<>": 1476,
      "icr": 1477,
      "mine": 1478,
      "ost": 1479,
      "scr": 1480,
      "tor": 1481,
      "tad": 1482,
      "uid": 1483,
      "ata": 1484,
      "termine": 1485,
      "_m_default_": 1486,
      "atelim": 1487,
      "fileimpl": 1488,
      "metad": 1489,
      "set<>": 1490,
      "createnew": 1491,
      "blockfetch": 1492,
      "descr": 1493,
      "determine": 1494,
      "cacheentry": 1495,
      "ext": 1496,
      "iptor": 1497,
      "indexblock": 1498,
      "genericr": 1499,
      "updat": 1500,
      "unaccountedfiledeletion": 1501,
      "deleteunaccountedfile": 1502,
      "deleteunaccounteddbfile": 1503,
      "ofdirectory": 1504,
      "scheduleunaccountedfiledeletion": 1505,
      "setupdbid": 1506,
      "atelimiter": 1507,
      "metadata": 1508,
      "createnewmemtable": 1509,
      "blockfetcher": 1510,
      "descriptor": 1511,
      "determineseed": 1512,
      "genericratelimiter": 1513,
      "#2": 1514,
      "pack": 1515,
      "sfs": 1516,
      "ysfs": 1517,
      "~formatsinkimpl": 1518,
      "__ostream": 1519,
      "entr": 1520,
      "tcf": 1521,
      "invokeflush<>": 1522,
      "unrefand": 1523,
      "untyped": 1524,
      "thost": 1525,
      "filevalue": 1526,
      "seq": 1527,
      "versionappend": 1528,
      "mapp": 1529,
      "gethost": 1530,
      "ity": 1531,
      "tablefilename": 1532,
      "flushjobinfo": 1533,
      "cachelogicalblocksize": 1534,
      "getqueu": 1535,
      "getflushjobinfo": 1536,
      "registerflushblockpolicy": 1537,
      "namestring": 1538,
      "esysfs": 1539,
      "forversionappend": 1540,
      "strformat": 1541,
      "formatflush": 1542,
      "formatpack": 1543,
      "formatuntyped": 1544,
      "abslformatflush": 1545,
      "prepareappend": 1546,
      "prepareforversionappend": 1547,
      "dumpcfstatswritestall": 1548,
      "putcf": 1549,
      "directories": 1550,
      "line": 1551,
      "offd": 1552,
      "refandcachelogicalblocksize": 1553,
      "filechecksumgenfactory": 1554,
      "sstpartitionerfactory": 1555,
      "#2}": 1556,
      "__ostream_insert<>": 1557,
      "unrefandtry": 1558,
      "gethostnamestring": 1559,
      "getqueuesysfs": 1560,
      "registerflushblockpolicyfactories": 1561,
      "strformat<>": 1562,
      "formatpack[abi:cxx11]": 1563,
      "getqueuesysfsfilevalue": 1564,
      "#3": 1565,
      "aux": 1566,
      "calloc": 1567,
      "hshard": 1568,
      "t<>": 1569,
      "opy": 1570,
      "encode": 1571,
      "enext": 1572,
      "tcac": 1573,
      "ingle": 1574,
      "tcmallocinternalposix": 1575,
      "tcmallocinternalcalloc": 1576,
      "achshard": 1577,
      "e_aligned": 1578,
      "memali": 1579,
      "initshard": 1580,
      "cachelin": 1581,
      "resize": 1582,
      "gn  ": 1583,
      "emplace_hint<>": 1584,
      "foreachshard": 1585,
      "entropy": 1586,
      "#3}": 1587,
      "tcache": 1588,
      "tcmallocinternalposixmemali": 1589,
      "tcmallocinternalcalloc  ": 1590,
      "e_aligned_alloc": 1591,
      "initshards": 1592,
      "cacheline_aligned_alloc": 1593,
      "tcmallocinternalposixmemalign  ": 1594,
      "aw": 1595,
      "emp": 1596,
      "mal": 1597,
      "nor": 1598,
      "oth": 1599,
      "q_ptr": 1600,
      "ssion": 1601,
      "var": 1602,
      "~versionset": 1603,
      "~writablefilewriter": 1604,
      "dbuf": 1605,
      "ername": 1606,
      "__uni": 1607,
      "anoth": 1608,
      "tablecollector": 1609,
      "mbuf": 1610,
      "izepath": 1611,
      "basic_strea": 1612,
      "basic_stringbuf<>": 1613,
      "filenumber": 1614,
      "filemetadata": 1615,
      "newsstfilemanager": 1616,
      "newunique": 1617,
      "newdirectory": 1618,
      "session": 1619,
      "setbackgroundthreads": 1620,
      "noto": 1621,
      "bgthreads": 1622,
      "track": 1623,
      "id[abi:cxx11]": 1624,
      "filesystemp": 1625,
      "default_n": 1626,
      "installsuperversion": 1627,
      "timemapp": 1628,
      "dumpcfmapstatswritestall": 1629,
      "sonfinish": 1630,
      "alignedbuf": 1631,
      "notifycollect": 1632,
      "startbgthreads": 1633,
      "basic_file": 1634,
      "basic_if": 1635,
      "metaindexbuilder": 1636,
      "generateraw": 1637,
      "allocatenewbuffer": 1638,
      "deleteobsoletefileimpl": 1639,
      "_m_default_append": 1640,
      "seqnoto": 1641,
      "unrefandtrydelete": 1642,
      "malizepath": 1643,
      "normalizepath": 1644,
      "q_ptr_impl<>": 1645,
      "varint": 1646,
      "__uniq_ptr_impl<>": 1647,
      "anothername": 1648,
      "tablecollectorsonfinish": 1649,
      "mbuf<>": 1650,
      "basic_streambuf<>": 1651,
      "newuniqueobject<>": 1652,
      "setbackgroundthreadsinternal": 1653,
      "filesystemptr": 1654,
      "timemapping": 1655,
      "alignedbuffer": 1656,
      "notifycollecttablecollectorsonfinish": 1657,
      "generaterawuniqueid": 1658,
      "seqnototimemapping": 1659,
      "addindex": 1660,
      "indexreader": 1661,
      "addindexentry": 1662,
      "_emplace<>": 1663,
      "ur": 1664,
      "xit": 1665,
      "dbsession": 1666,
      "rocksdbbuild": 1667,
      "rename": 1668,
      "ents": 1669,
      "atexit": 1670,
      "fileto": 1671,
      "dumprocksdbbuild": 1672,
      "getoptions": 1673,
      "gettableproperties": 1674,
      "logandapplyhelper": 1675,
      "try_emplace<>": 1676,
      "ident": 1677,
      "maybeupdat": 1678,
      "_m_insert_unique_aux": 1679,
      "queue<>": 1680,
      "tempfileto": 1681,
      "descriptorfilename": 1682,
      "enextfilenumber": 1683,
      "renametempfileto": 1684,
      "dumprocksdbbuildversion": 1685,
      "identity": 1686,
      "maybeupdatenextfilenumber": 1687,
      "_m_insert_unique_aux<>": 1688,
      "renametempfiletooptionsfile": 1689,
      "seek": 1690,
      "64": 1691,
      "_atexit": 1692,
      "cc": 1693,
      "goptions": 1694,
      "lar": 1695,
      "oma": 1696,
      "single": 1697,
      "xa": 1698,
      "xed": 1699,
      "dbstats": 1700,
      "stan": 1701,
      "inlin": 1702,
      "instan": 1703,
      "remo": 1704,
      "relocal": 1705,
      "fixed": 1706,
      "oller": 1707,
      "contr": 1708,
      "arwriter": 1709,
      "arra": 1710,
      "logwri": 1711,
      "ternumber": 1712,
      "configoptions": 1713,
      "ingwrapper": 1714,
      "fileinfo": 1715,
      "fileprefetch": 1716,
      "__cxa": 1717,
      "head": 1718,
      "setidentity": 1719,
      "acingwrapper": 1720,
      "corelocal": 1721,
      "writecontr": 1722,
      "tracingwrapper": 1723,
      "eskiplist": 1724,
      "om_internal": 1725,
      "handledbstats": 1726,
      "compression": 1727,
      "printresults": 1728,
      "random_internal": 1729,
      "clearwriter": 1730,
      "varint32": 1731,
      "ccess": 1732,
      "omaccess": 1733,
      "inlineskiplist": 1734,
      "instance": 1735,
      "remove": 1736,
      "array": 1737,
      "logwriternumber": 1738,
      "fileprefetchbuffer": 1739,
      "setidentityfile": 1740,
      "corelocalarray": 1741,
      "writecontroller": 1742,
      "inlineskiplist<>": 1743,
      "bin": 1744,
      "binary": 1745,
      " rocksdb": 1746,
      " ro": 1747,
      " for": 1748,
      "-local": 1749,
      "_context": 1750,
      "fcu": 1751,
      "f_context": 1752,
      "gth": 1753,
      "mut": 1754,
      "ngth": 1755,
      "ostring": 1756,
      "pre": 1757,
      "xtcache": 1758,
      "instr": 1759,
      "length": 1760,
      "allocbuf": 1761,
      "optionhelper": 1762,
      "thread-local": 1763,
      "next": 1764,
      "newsequentialfile": 1765,
      "edmut": 1766,
      "ument": 1767,
      "perf_context": 1768,
      "utine": 1769,
      "writeindexblock": 1770,
      "blockbasedtableproperties": 1771,
      "allocate  ": 1772,
      "putlength": 1773,
      "statscolle": 1774,
      "tri": 1775,
      "getcurrent": 1776,
      "serializesingle": 1777,
      "manifestpath": 1778,
      "posixsequentialfile": 1779,
      "readblock": 1780,
      "bufferto": 1781,
      "update": 1782,
      "doallocbuf": 1783,
      "doallocate  ": 1784,
      "contextcache": 1785,
      "__uninitialized_default_n": 1786,
      "_io_doallocbuf": 1787,
      "generaterfcu": 1788,
      "_io_file_doallocate  ": 1789,
      "_thread_atexit": 1790,
      "cacheentrystatscolle": 1791,
      "encodeto": 1792,
      "basic_filebuf<>": 1793,
      "fixedslice": 1794,
      "__cxa_thread_atexit": 1795,
      "compressioncontextcache": 1796,
      " routine": 1797,
      " for rocksdb": 1798,
      "prefixedslice": 1799,
      "instrument": 1800,
      "thread-local ": 1801,
      "edmutex": 1802,
      "perf_context  ": 1803,
      "blockbasedtablepropertiescollector": 1804,
      "putlengthprefixedslice": 1805,
      "getcurrentmanifestpath": 1806,
      "serializesingleoptionhelper": 1807,
      "_io_doallocbuf  ": 1808,
      "generaterfcuuid": 1809,
      "cacheentrystatscollector<>": 1810,
      " routine for rocksdb": 1811,
      "instrumentedmutex": 1812,
      "_destroy": 1813,
      "_set<>": 1814,
      "_lar": 1815,
      "blo": 1816,
      "cap": 1817,
      "cla": 1818,
      "ic": 1819,
      "kcla": 1820,
      "ms": 1821,
      "ment": 1822,
      "ss": 1823,
      "toc": 1824,
      "u64": 1825,
      "~shared": 1826,
      "~envlogger": 1827,
      "into": 1828,
      "allocation": 1829,
      "ang": 1830,
      "anup": 1831,
      "open  ": 1832,
      "opendir": 1833,
      "logfilename": 1834,
      "tsimpl<>": 1835,
      "candi": 1836,
      "flushbufferto": 1837,
      "slow_alloc_lar": 1838,
      "creatememtablerep": 1839,
      "ache<>": 1840,
      "writebuffer": 1841,
      "blockfromfile": 1842,
      "addnumber": 1843,
      "flag<>": 1844,
      "flagimpl": 1845,
      "_m_insert_r": 1846,
      "posixdirectory": 1847,
      "_sp_counted_ptr<>": 1848,
      "unordered_set<>": 1849,
      "maketablefilename": 1850,
      "mayb": 1851,
      "comparatorwith": 1852,
      "fsync": 1853,
      "uple": 1854,
      "basic_ostring": 1855,
      "loadtables": 1856,
      "ioerrorms": 1857,
      "cleanup": 1858,
      "datefileinfo": 1859,
      "getlogicalblocksizeofdirectory": 1860,
      "dirfsync": 1861,
      "omaccessfile": 1862,
      "_destroy<>": 1863,
      "kclass": 1864,
      "tocache<>": 1865,
      "u64tsimpl<>": 1866,
      "~shared_ptr": 1867,
      "opendir  ": 1868,
      "candidatefileinfo": 1869,
      "flushbuffertolog": 1870,
      "slow_alloc_large<>": 1871,
      "comparatorwithu64tsimpl<>": 1872,
      "basic_ostringstream<>": 1873,
      "ioerrormsg": 1874,
      "dirfsyncoptions": 1875,
      "kclassname": 1876,
      "_d": 1877,
      "_create": 1878,
      "ls": 1879,
      "l_alloc": 1880,
      "pthread": 1881,
      "_m_start": 1882,
      "arch": 1883,
      "ate_t": 1884,
      "_dl_alloc": 1885,
      "_create  ": 1886,
      "ls  ": 1887,
      "pthread_create  ": 1888,
      "_m_start_thread": 1889,
      "ate_tls  ": 1890,
      "_dl_allocate_tls  ": 1891,
      "der": 1892,
      "eve": 1893,
      "eoptionstring": 1894,
      "iv": 1895,
      "late": 1896,
      "rang": 1897,
      "~eventloggerstream": 1898,
      "resh": 1899,
      "retri": 1900,
      "ange<>": 1901,
      "unes": 1902,
      "threadstatus": 1903,
      "fileadd": 1904,
      "newindex": 1905,
      "block<>": 1906,
      "point": 1907,
      "pri": 1908,
      "getid[abi:cxx11]": 1909,
      "insertinto": 1910,
      "registerfilechecksumgen": 1911,
      "registersstpartitioner": 1912,
      "applyfileadd": 1913,
      "registerbuiltincompactionfilter": 1914,
      "operator+=": 1915,
      "syncpoint": 1916,
      "refresh": 1917,
      "superversioncontext": 1918,
      "randen": 1919,
      "getlogicalblocksizeoffd": 1920,
      "putcfimpl<>": 1921,
      "linefilereader": 1922,
      "getqueuesysfsfilevalueofdirectory": 1923,
      "getqueuesysfsfilevalueoffd": 1924,
      "dbsessionid": 1925,
      "capeoptionstring": 1926,
      "_m_insert_range<>": 1927,
      "deriv": 1928,
      "eveblock<>": 1929,
      "retrieveblock<>": 1930,
      "unescapeoptionstring": 1931,
      "newindexiterator": 1932,
      "registerfilechecksumgenfactories": 1933,
      "registersstpartitionerfactories": 1934,
      "applyfileaddition": 1935,
      "registerbuiltincompactionfilters": 1936,
      "refreshderiv": 1937,
      "refreshderivedoptions": 1938,
      "search": 1939,
      "binarysearch": 1940,
      "binarysearchindexreader": 1941,
      "_build": 1942,
      "ahead": 1943,
      "fall": 1944,
      "gin": 1945,
      "lall": 1946,
      "non": 1947,
      "sor": 1948,
      "tents": 1949,
      "uuid": 1950,
      "~columnfamilydata": 1951,
      "~columnfamilyset": 1952,
      "sto": 1953,
      "onadd": 1954,
      "lestats": 1955,
      "contents": 1956,
      "readfile": 1957,
      "readahead": 1958,
      "cance": 1959,
      "newdatablockiter": 1960,
      "andschedule": 1961,
      "rolestats": 1962,
      "_s_build": 1963,
      "com": 1964,
      "writestringto": 1965,
      "mapkey": 1966,
      "builder<>": 1967,
      "allocatefall": 1968,
      "putvarint32": 1969,
      "backgroundwork": 1970,
      "factory<>": 1971,
      "static": 1972,
      "statsmapkey": 1973,
      "adddirectories": 1974,
      "registerthread": 1975,
      "_nodebuilder<>": 1976,
      "_m_assign_": 1977,
      "findfactory<>": 1978,
      "filesystemwrapper": 1979,
      "filesystemtracingwrapper": 1980,
      "skiplistrep": 1981,
      "currentfilename": 1982,
      "fssequentialfile": 1983,
      "portuuid": 1984,
      "localtimer": 1985,
      "writestallstatsmapkey": 1986,
      "generateuniqueid": 1987,
      "tempfilename": 1988,
      "prefetchtail": 1989,
      "allocatenewblock": 1990,
      "dumpdbstatswritestall": 1991,
      "cacheentryrolestats": 1992,
      "tablefilename[abi:cxx11]": 1993,
      "entropytrack": 1994,
      "installsuperversionandschedule": 1995,
      "basic_ifstream": 1996,
      "basic_ifstream<>": 1997,
      "generaterawuniqueidimpl": 1998,
      "getoptionsmap": 1999,
      "instrumentedmutexlock": 2000,
      "blob": 2001,
      "lallbackgroundwork": 2002,
      "readfiletostring": 2003,
      "readaheadsequentialfile": 2004,
      "cancelallbackgroundwork": 2005,
      "newdatablockiterator<>": 2006,
      "_s_build<>": 2007,
      "writestringtofile": 2008,
      "allocatefallback": 2009,
      "staticmeta": 2010,
      "writestallstatsmapkeys": 2011,
      "entropytrackportuuid": 2012,
      "installsuperversionandschedulework": 2013,
      "initializebase": 2014,
      "adblock": 2015,
      "ce<>": 2016,
      "ele": 2017,
      "fopen  ": 2018,
      "ments": 2019,
      "omp": 2020,
      "ode": 2021,
      "inter": 2022,
      "allocaten": 2023,
      "ader<>": 2024,
      "face<>": 2025,
      "fileloc": 2026,
      "newinstance": 2027,
      "andload": 2028,
      "tes": 2029,
      "setdbid": 2030,
      "allocateimpl<>": 2031,
      "allocateblock": 2032,
      "allocatekey": 2033,
      "prin": 2034,
      "cacheinter": 2035,
      "optionsfiles": 2036,
      "deletefile": 2037,
      "ationindex": 2038,
      "ereadblock": 2039,
      "setcomp": 2040,
      "_io_fopen  ": 2041,
      "filereader<>": 2042,
      "generatefileloc": 2043,
      "deleteobsoleteoptionsfiles": 2044,
      "seekimpl": 2045,
      "linefilereader<>": 2046,
      "urbg": 2047,
      "getoptions<>": 2048,
      "corelocalarray<>": 2049,
      "nextimpl": 2050,
      "readblockcontents": 2051,
      "maybereadblock": 2052,
      "_m_assign_ele": 2053,
      "ments<>": 2054,
      "allocatenode": 2055,
      "andloadtocache<>": 2056,
      "cacheinterface<>": 2057,
      "generatefilelocationindex": 2058,
      "maybereadblockandloadtocache<>": 2059,
      "_m_assign_elements<>": 2060,
      "_impl": 2061,
      "optionname": 2062,
      "ization": 2063,
      "initial": 2064,
      "getoptionname": 2065,
      "wrapper routine for rocksdb": 2066,
      "forget": 2067,
      "indexblockiter": 2068,
      "seekforget": 2069,
      "__cxa_thread_atexit  ": 2070,
      "__cxa_thread_atexit_impl": 2071,
      "thread-local initial": 2072,
      "thread-local wrapper routine for rocksdb": 2073,
      "ization routine for rocksdb": 2074,
      "__cxa_thread_atexit_impl  ": 2075,
      "thread-local initialization routine for rocksdb": 2076,
      "_en": 2077,
      "_list": 2078,
      "_head": 2079,
      "ause": 2080,
      "bo": 2081,
      "c32": 2082,
      "ctcache": 2083,
      "cause": 2084,
      "epath": 2085,
      "fread": 2086,
      "fwrite": 2087,
      "foo": 2088,
      "ful": 2089,
      "rerror": 2090,
      "tuple": 2091,
      "~genericratelimiter": 2092,
      "requ": 2093,
      "rehash": 2094,
      "allocnode<>": 2095,
      "tioncount": 2096,
      "_strerror": 2097,
      "orallocnode<>": 2098,
      "tcur": 2099,
      "olut": 2100,
      "condi": 2101,
      "aries": 2102,
      "logto": 2103,
      "invokeget": 2104,
      "invoke_strerror": 2105,
      "unregisterdbpaths": 2106,
      "_m_rang": 2107,
      "wrand": 2108,
      "readand": 2109,
      "readmeta": 2110,
      "flushinfo": 2111,
      "flushrequ": 2112,
      "newrand": 2113,
      "newmeta": 2114,
      "andnewdirectory": 2115,
      "andremove": 2116,
      "_internal_": 2117,
      "columnfamilydescriptor": 2118,
      "tcmallocinternalnewaligned": 2119,
      "metab": 2120,
      "setdirectories": 2121,
      "setdbsessionid": 2122,
      "createandnewdirectory": 2123,
      "actcur": 2124,
      "writefoo": 2125,
      "e_initialize": 2126,
      "_put": 2127,
      "_tuple": 2128,
      "nostr": 2129,
      "culate": 2130,
      "undaries": 2131,
      "parsestate": 2132,
      "parseblockfromfile": 2133,
      "infologfilename": 2134,
      "cachekey": 2135,
      "getshared": 2136,
      "getabs": 2137,
      "getdbpaths[abi:cxx11]": 2138,
      "getflag<>": 2139,
      "peer": 2140,
      "optionsfilename": 2141,
      "makest": 2142,
      "addkey": 2143,
      "iterkey": 2144,
      "baseby": 2145,
      "basecachekey": 2146,
      "forblockfromfile": 2147,
      "filesby": 2148,
      "strip": 2149,
      "posixrand": 2150,
      "entrystats": 2151,
      "calculate": 2152,
      "mergehelper": 2153,
      "walmanager": 2154,
      "deletedbfile": 2155,
      "memtablelistversion": 2156,
      "preparebuffer": 2157,
      "tablebuilderoptions": 2158,
      "sstfilesto": 2159,
      "collectcache": 2160,
      "hash_base<>": 2161,
      "mapstatswritestall": 2162,
      "locked  ": 2163,
      "swap": 2164,
      "savesstfilesto": 2165,
      "dumpdbmapstatswritestall": 2166,
      "_unlocked  ": 2167,
      "_rehash_base<>": 2168,
      "errnostr": 2169,
      "crc32": 2170,
      "compactionpri": 2171,
      "collectstats": 2172,
      "_reuseorallocnode<>": 2173,
      "schedulefiledeletion": 2174,
      "generatekey": 2175,
      "generatevalue": 2176,
      "generatedbsession": 2177,
      "trimandremove": 2178,
      "setupbasecachekey": 2179,
      "_io_file_overflow": 2180,
      "_io_file_xsputn": 2181,
      "updater": 2182,
      "updatefilesby": 2183,
      "flagimplpeer": 2184,
      "kclassnameinternal": 2185,
      "threadstatusupdater": 2186,
      "randen_en": 2187,
      "gine<>": 2188,
      "sors": 2189,
      "comment": 2190,
      "fssequentialfileptr": 2191,
      "blobfile": 2192,
      "setcompactcur": 2193,
      "_list_base<>": 2194,
      "_head_base<>": 2195,
      "boundaries": 2196,
      "causecondi": 2197,
      "fread_unlocked  ": 2198,
      "fwrite  ": 2199,
      "full": 2200,
      "tuple<>": 2201,
      "tioncount[abi:cxx11]": 2202,
      "olutepath": 2203,
      "logtobuffer": 2204,
      "invokeget<>": 2205,
      "invoke_strerror_r": 2206,
      "_m_range_initialize": 2207,
      "readandparseblockfromfile": 2208,
      "readmetaindexblock": 2209,
      "flushinfolog": 2210,
      "flushrequest": 2211,
      "newrandomaccessfile": 2212,
      "newmetaiterator": 2213,
      "tcmallocinternalnewaligned  ": 2214,
      "metablockiter": 2215,
      "writefooter": 2216,
      "_tuple_impl<>": 2217,
      "parsestatement": 2218,
      "getabsolutepath": 2219,
      "makestream": 2220,
      "basebytes": 2221,
      "posixrandomaccessfile": 2222,
      "calculatebasebytes": 2223,
      "preparebufferforblockfromfile": 2224,
      "collectcacheentrystats": 2225,
      "errnostr[abi:cxx11]": 2226,
      "generatedbsessionid[abi:cxx11]": 2227,
      "trimandremovecomment": 2228,
      "_io_file_overflow  ": 2229,
      "_io_file_xsputn  ": 2230,
      "updatefilesbycompactionpri": 2231,
      "randen_engine<>": 2232,
      "setcompactcursors": 2233,
      "causeconditioncount[abi:cxx11]": 2234,
      "_m_range_initialize<>": 2235,
      "readandparseblockfromfile<>": 2236,
      "1<>": 2237,
      "_per": 2238,
      "_default_n": 2239,
      "_queue<>": 2240,
      "_1<>": 2241,
      "af": 2242,
      "amp": 2243,
      "d_h": 2244,
      "ela": 2245,
      "ecord": 2246,
      "gg": 2247,
      "is": 2248,
      "its": 2249,
      "lapp": 2250,
      "num": 2251,
      "ook": 2252,
      "siter": 2253,
      "s_or": 2254,
      "ton": 2255,
      "stcfoptions": 2256,
      "all_s": 2257,
      "reurbg": 2258,
      "leflush": 2259,
      "led_h": 2260,
      "alloc_sm": 2261,
      "__basic_file": 2262,
      "options[abi:cxx11]": 2263,
      "orcompaction": 2264,
      "ority": 2265,
      "terbinary": 2266,
      "tableoptions[abi:cxx11]": 2267,
      "thandler": 2268,
      "ctyp": 2269,
      "tsingle": 2270,
      "basictyp": 2271,
      "newversion": 2272,
      "newgenericratelimiter": 2273,
      "secu": 2274,
      "sethandler": 2275,
      "edcacheinterface<>": 2276,
      "edela": 2277,
      "andfilter": 2278,
      "util": 2279,
      "createhandle": 2280,
      "createcontext": 2281,
      "createindexbuilder": 2282,
      "createindexreader": 2283,
      "locktocache<>": 2284,
      "blockcreatecontext": 2285,
      "decode": 2286,
      "buildcolumnfamilyoptions": 2287,
      "ending": 2288,
      "versionedits": 2289,
      "init_default_n": 2290,
      "putdatab": 2291,
      "parseinternalkey": 2292,
      "get[abi:cxx11]": 2293,
      "getlin": 2294,
      "getthreadlocal": 2295,
      "getlate": 2296,
      "getprin": 2297,
      "tra": 2298,
      "addfile": 2299,
      "regator": 2300,
      "eschedu": 2301,
      "_m_allocate_internal_": 2302,
      "applyversionedit": 2303,
      "recordallocation": 2304,
      "initsingle": 2305,
      "recoverycontext": 2306,
      "findkey": 2307,
      "__uninit_default_n": 2308,
      "installnewversion": 2309,
      "indexandfilter": 2310,
      "_io_fd": 2311,
      "compactionrang": 2312,
      "value<>": 2313,
      "overlapp": 2314,
      "prefetchindexandfilter": 2315,
      "_m_default_initialize": 2316,
      "updateversionedits": 2317,
      "__uninitialized_default_n<>": 2318,
      "__uninitialized_default_n_a<>": 2319,
      "__uninitialized_default_n_1<>": 2320,
      "allocationsiter": 2321,
      "maybeschedu": 2322,
      "threadstatusutil": 2323,
      "priority": 2324,
      "randenpool": 2325,
      "dbsessionidgen": 2326,
      "nonsecu": 2327,
      "onaddfile": 2328,
      "onaddfileimpl": 2329,
      "putvarint32varint32": 2330,
      "generateuniqueid[abi:cxx11]": 2331,
      "_put<>": 2332,
      "_perthread<>": 2333,
      "afterbinary": 2334,
      "ampled_h": 2335,
      "ecorder": 2336,
      "ggregator": 2337,
      "num_put<>": 2338,
      "ooks_or": 2339,
      "all_sampled_h": 2340,
      "leflushorcompaction": 2341,
      "alloc_small_sampled_h": 2342,
      "__basic_file<>": 2343,
      "basictypedcacheinterface<>": 2344,
      "edelaggregator": 2345,
      "decodefrom": 2346,
      "putdatablocktocache<>": 2347,
      "getline<>": 2348,
      "getlatestcfoptions": 2349,
      "getprintableoptions[abi:cxx11]": 2350,
      "_m_allocate_internal_buffer": 2351,
      "initsingleton": 2352,
      "findkeyafterbinary": 2353,
      "__uninit_default_n<>": 2354,
      "_io_fdopen  ": 2355,
      "compactionrangedelaggregator": 2356,
      "overlapping": 2357,
      "prefetchindexandfilterblocks": 2358,
      "allocationsiterecorder": 2359,
      "maybescheduleflushorcompaction": 2360,
      "priority_queue<>": 2361,
      "nonsecureurbg": 2362,
      "ooks_or_perthread<>": 2363,
      "alloc_small_sampled_hooks_or_perthread<>": 2364,
      "findkeyafterbinaryseek": 2365,
      "0file": 2366,
      "_po": 2367,
      "_info": 2368,
      "bit": 2369,
      "cfl": 2370,
      "clock": 2371,
      "dy": 2372,
      "dinfologfilename": 2373,
      "ep": 2374,
      "eimpl<>": 2375,
      "eader": 2376,
      "go": 2377,
      "hed": 2378,
      "mon": 2379,
      "mic": 2380,
      "ning": 2381,
      "rat": 2382,
      "rocess": 2383,
      "sla": 2384,
      "syst": 2385,
      "sort": 2386,
      "senext": 2387,
      "tok": 2388,
      "~version": 2389,
      "~writecontroller": 2390,
      "st_p": 2391,
      "stcrc32": 2392,
      "onfi": 2393,
      "only": 2394,
      "onnon": 2395,
      "ongo": 2396,
      "allcolumnfamily": 2397,
      "reflags": 2398,
      "resto": 2399,
      "letion": 2400,
      "lear": 2401,
      "ension": 2402,
      "enqueu": 2403,
      "enlar": 2404,
      "orun": 2405,
      "tconfi": 2406,
      "oldinfologfilename": 2407,
      "mallocext": 2408,
      "invoke<>": 2409,
      "unref": 2410,
      "sheader": 2411,
      "gura": 2412,
      "ingdata": 2413,
      "ingcompaction": 2414,
      "ingsla": 2415,
      "ilingsla": 2416,
      "readindexblock": 2417,
      "readline": 2418,
      "readonly": 2419,
      "operation": 2420,
      "basic_stringstream<>": 2421,
      "mach": 2422,
      "fastcrc32": 2423,
      "fileby": 2424,
      "fileboundaries": 2425,
      "newreadaheadsequentialfile": 2426,
      "seed<>": 2427,
      "ed[abi:cxx11]": 2428,
      "andref": 2429,
      "parsenext": 2430,
      "istingdata": 2431,
      "lockfilename": 2432,
      "e_aux": 2433,
      "delim": 2434,
      "gebuffer": 2435,
      "memtablesor": 2436,
      "ithongo": 2437,
      "cfoperation": 2438,
      "parsesection": 2439,
      "cached": 2440,
      "callback": 2441,
      "callonc": 2442,
      "getinstance": 2443,
      "get_po": 2444,
      "getallcolumnfamily": 2445,
      "getmach": 2446,
      "getandref": 2447,
      "getdelim": 2448,
      "statsheader": 2449,
      "existingdata": 2450,
      "namic": 2451,
      "insertfull": 2452,
      "countlim": 2453,
      "base_internal": 2454,
      "levelstatsheader": 2455,
      "spatch": 2456,
      "flagvalue<>": 2457,
      "sour": 2458,
      "manifestwriter": 2459,
      "operator=<>": 2460,
      "_m_insert_int": 2461,
      "emclock": 2462,
      "dispatch": 2463,
      "completion": 2464,
      "tablereaderoptions": 2465,
      "lace_aux": 2466,
      "obsoletefileinfo": 2467,
      "begin": 2468,
      "key<>": 2469,
      "collection": 2470,
      "_m_replace_aux": 2471,
      "dumpcffilehistogram": 2472,
      "fswritablefiletracingwrapper": 2473,
      "swithongo": 2474,
      "sitestats": 2475,
      "printlevelstatsheader": 2476,
      "inelear": 2477,
      "supported[abi:cxx11]": 2478,
      "randomaccess": 2479,
      "tempoptionsfilename": 2480,
      "seedseq": 2481,
      "typedcacheinterface<>": 2482,
      "mappend": 2483,
      "unrefandtryremove": 2484,
      "encodefileboundaries": 2485,
      "trackfiles": 2486,
      "trackorun": 2487,
      "trackexistingdata": 2488,
      "varint64": 2489,
      "indexreadercom": 2490,
      "removetra": 2491,
      "removememtablesor": 2492,
      "nexttok": 2493,
      "trimappend": 2494,
      "updateboundaries": 2495,
      "bloom": 2496,
      "allocationsitestats": 2497,
      "cleanupdirectory": 2498,
      "fssequentialfiletracingwrapper": 2499,
      "blobsour": 2500,
      "printconfi": 2501,
      "striped": 2502,
      "striped<>": 2503,
      "savesstfilesto<>": 2504,
      "crc32c": 2505,
      "blobfilecache": 2506,
      "blobfilecompletion": 2507,
      "fulltypedcacheinterface<>": 2508,
      "isfastcrc32": 2509,
      "endingflush": 2510,
      "getthreadlocalsuperversion": 2511,
      "randenpoolseedseq": 2512,
      "overlappingrat": 2513,
      "nonsecureurbgbase<>": 2514,
      "0filecountlim": 2515,
      "bitgen": 2516,
      "cfl0filecountlim": 2517,
      "dynamic": 2518,
      "ependingflush": 2519,
      "ningallocationsitestats": 2520,
      "rocess_info": 2521,
      "systemclock": 2522,
      "sortfileby": 2523,
      "st_process_info": 2524,
      "onnoncfoperation": 2525,
      "restoreflags": 2526,
      "enqueuependingflush": 2527,
      "enlargebuffer": 2528,
      "mallocextension": 2529,
      "guration": 2530,
      "ingcompaction[abi:cxx11]": 2531,
      "ilingslash": 2532,
      "readonlymemtable": 2533,
      "parsenextkey<>": 2534,
      "cachedlogicalblocksize": 2535,
      "callonceimpl<>": 2536,
      "get_post_process_info": 2537,
      "getallcolumnfamilymetadata": 2538,
      "getmachinelear": 2539,
      "getandrefsuperversion": 2540,
      "getdelim  ": 2541,
      "_m_insert_int<>": 2542,
      "dispatch<>": 2543,
      "begincollection": 2544,
      "swithongoingcompaction[abi:cxx11]": 2545,
      "randomaccessfilereader": 2546,
      "unrefandtryremovecachedlogicalblocksize": 2547,
      "trackoruntrackfiles": 2548,
      "trackexistingdatafiles": 2549,
      "indexreadercommon": 2550,
      "removetrailingslash": 2551,
      "removememtablesorrestoreflags": 2552,
      "nexttoken": 2553,
      "blobsource": 2554,
      "printconfiguration": 2555,
      "blobfilecompletioncallback": 2556,
      "isfastcrc32supported[abi:cxx11]": 2557,
      "overlappingratio": 2558,
      "cfl0filecountlimit": 2559,
      "dynamicbloom": 2560,
      "sortfilebyoverlappingratio": 2561,
      "getmachinelearningallocationsitestats": 2562,
      "_dispatch<>": 2563,
      "cor": 2564,
      "dadd": 2565,
      "fr": 2566,
      "host": 2567,
      "idb": 2568,
      "iate": 2569,
      "ise": 2570,
      "ite": 2571,
      "ival": 2572,
      "kbuffer": 2573,
      "med": 2574,
      "nrecord": 2575,
      "out": 2576,
      "output": 2577,
      "p  ": 2578,
      "ption": 2579,
      "rst": 2580,
      "s<>": 2581,
      "size": 2582,
      "ture": 2583,
      "ved": 2584,
      "wise": 2585,
      "wnrecord": 2586,
      "ytes": 2587,
      "yswithongoingcompaction[abi:cxx11]": 2588,
      "db_p": 2589,
      "dbhost": 2590,
      "rocksbuild": 2591,
      "stop": 2592,
      "stinternalkey": 2593,
      "stostring": 2594,
      "erflow": 2595,
      "eratexit": 2596,
      "erdadd": 2597,
      "ont": 2598,
      "ops<>": 2599,
      "allentr": 2600,
      "reify": 2601,
      "reseed<>": 2602,
      "allocator": 2603,
      "ath": 2604,
      "optionstostring": 2605,
      "first": 2606,
      "_string": 2607,
      "orte": 2608,
      "shut": 2609,
      "shorte": 2610,
      "ctinfo": 2611,
      "readmo": 2612,
      "readrecord": 2613,
      "readphysicalrecord": 2614,
      "readinto": 2615,
      "newdata": 2616,
      "newflushblockpolicy": 2617,
      "newsuperversion": 2618,
      "separ": 2619,
      "edfiles": 2620,
      "heap": 2621,
      "live": 2622,
      "tewise": 2623,
      "ruption": 2624,
      "fromtable": 2625,
      "fromversionedit": 2626,
      "fromrandenpool": 2627,
      "createthreadstatusupdater": 2628,
      "blockcontents": 2629,
      "e_unique<>": 2630,
      "constructurbg": 2631,
      "dela": 2632,
      "sharedguard": 2633,
      "initpool": 2634,
      "initblockiter": 2635,
      "putfixed": 2636,
      "putvarint64": 2637,
      "poolfor": 2638,
      "underflow": 2639,
      "appendcurrent": 2640,
      "dup  ": 2641,
      "found": 2642,
      "dataguard": 2643,
      "getstats": 2644,
      "getproperty": 2645,
      "getentropy": 2646,
      "getrocksbuild": 2647,
      "getfromtable": 2648,
      "getblockcontents": 2649,
      "getpoolfor": 2650,
      "immed": 2651,
      "extra": 2652,
      "addmemtable": 2653,
      "addlogtobuffer": 2654,
      "addvalue<>": 2655,
      "addlive": 2656,
      "typevalue": 2657,
      "insertite": 2658,
      "applyto": 2659,
      "fordb_p": 2660,
      "copyconstruct": 2661,
      "copybufferto": 2662,
      "level0non": 2663,
      "flagdefault": 2664,
      "flagops<>": 2665,
      "tofirst": 2666,
      "to_string": 2667,
      "getcolumnfamilymetadata": 2668,
      "strdup  ": 2669,
      "propertiesset": 2670,
      "properties[abi:cxx11]": 2671,
      "idproperty": 2672,
      "abslflagdefault": 2673,
      "handleguard": 2674,
      "handletypevalue": 2675,
      "mergeunord": 2676,
      "mergebatch": 2677,
      "findshorte": 2678,
      "inpending": 2679,
      "reserved": 2680,
      "genfordb_p": 2681,
      "currentthread": 2682,
      "currentfilenumber": 2683,
      "validator": 2684,
      "aratorname": 2685,
      "_m_initialize_dispatch<>": 2686,
      "loadpropertiesset": 2687,
      "makesharedcachehandleguard": 2688,
      "puts": 2689,
      "generate_impl<>": 2690,
      "bysize": 2691,
      "bytewise": 2692,
      "do_put": 2693,
      "downrecord": 2694,
      "filename[abi:cxx11]": 2695,
      "uniqueidb": 2696,
      "flushblockbysize": 2697,
      "policyfactory": 2698,
      "savevalue": 2699,
      "notfound": 2700,
      "push_fr": 2701,
      "_m_insert_unique_<>": 2702,
      "withbase<>": 2703,
      "generate<>": 2704,
      "generatelevel0non": 2705,
      "_io_file_underflow": 2706,
      "getlogicalblocksizefilename[abi:cxx11]": 2707,
      "encodesession": 2708,
      "encodeuniqueidb": 2709,
      "identityfilename": 2710,
      "seektofirst": 2711,
      "_atexit  ": 2712,
      "singleallocator": 2713,
      "__cxa_atexit  ": 2714,
      "compressionoptionstostring": 2715,
      "capture": 2716,
      "ange_unique<>": 2717,
      "_m_insert_range_unique<>": 2718,
      "archival": 2719,
      "putvarint32varint64": 2720,
      "_m_assign_dispatch<>": 2721,
      "deletefileimmed": 2722,
      "setcomparatorname": 2723,
      "_internal_getmachinelearningallocationsitestats": 2724,
      "iskbuffer": 2725,
      "putvarint32varint32varint32": 2726,
      "initsingletons": 2727,
      "nonsecureurbgbase": 2728,
      "enlargebufferifneeded": 2729,
      "mallocextension_internal_getmachinelearningallocationsitestats": 2730,
      "cfl0filecountlimitstop": 2731,
      "cfl0filecountlimitdela": 2732,
      "getmachinelearningallocationsitestats[abi:cxx11]": 2733,
      "corruption": 2734,
      "iately": 2735,
      "outputs": 2736,
      "outputvalidator": 2737,
      "ytes[abi:cxx11]": 2738,
      "dbhostidproperty": 2739,
      "stinternalkeysepar": 2740,
      "erdaddedfiles": 2741,
      "allentries": 2742,
      "reifydbhostidproperty": 2743,
      "shutdownrecord": 2744,
      "ctinfofromversionedit": 2745,
      "readmore": 2746,
      "readintobuffer": 2747,
      "newdataiterator": 2748,
      "heapbuf": 2749,
      "initpoolurbg": 2750,
      "initblockiterator<>": 2751,
      "putfixed32": 2752,
      "appendcurrenttime": 2753,
      "getpropertyinfo": 2754,
      "getentropyfromrandenpool": 2755,
      "getrocksbuildproperties[abi:cxx11]": 2756,
      "getpoolforcurrentthread": 2757,
      "extractinfofromversionedit": 2758,
      "addlivefiles": 2759,
      "insertitem": 2760,
      "applytoallentries": 2761,
      "copybuffertoheapbuf": 2762,
      "abslflagdefaultgenfordb_p": 2763,
      "mergeunorderdaddedfiles": 2764,
      "findshortestinternalkeysepar": 2765,
      "inpendingoutputs": 2766,
      "reservediskbuffer": 2767,
      "currentfilenumberinpendingoutputs": 2768,
      "makesharedcachehandleguard<>": 2769,
      "bytewisecomparator": 2770,
      "flushblockbysizepolicyfactory": 2771,
      "push_front": 2772,
      "generatelevel0nonoverlapping": 2773,
      "_io_file_underflow  ": 2774,
      "encodesessionid[abi:cxx11]": 2775,
      "encodeuniqueidbytes[abi:cxx11]": 2776,
      "compressionoptionstostring[abi:cxx11]": 2777,
      "capturecurrentfilenumberinpendingoutputs": 2778,
      "archivaldirectory": 2779,
      "deletefileimmediately": 2780,
      "mallocextension_internal_getmachinelearningallocationsitestats  ": 2781,
      "cfl0filecountlimitstopswithongoingcompaction[abi:cxx11]": 2782,
      "cfl0filecountlimitdelayswithongoingcompaction[abi:cxx11]": 2783,
      "shutdownrecorderatexit": 2784,
      "abslflagdefaultgenfordb_path": 2785,
      "mergeunorderdaddedfileswithbase<>": 2786,
      "findshortestinternalkeyseparator": 2787
    },
    "merges": [
      [
        ":",
        ":"
      ],
      [
        " ",
        " "
      ],
      [
        "o",
        "c"
      ],
      [
        "d",
        "b"
      ],
      [
        "oc",
        "k"
      ],
      [
        "ock",
        "s"
      ],
      [
        "r",
        "ocks"
      ],
      [
        "rocks",
        "db"
      ],
      [
        "s",
        "t"
      ],
      [
        "e",
        "r"
      ],
      [
        "<",
        ">"
      ],
      [
        "i",
        "n"
      ],
      [
        "o",
        "n"
      ],
      [
        "a",
        "l"
      ],
      [
        "o",
        "p"
      ],
      [
        "st",
        "d"
      ],
      [
        "al",
        "l"
      ],
      [
        "i",
        "on"
      ],
      [
        "r",
        "e"
      ],
      [
        "l",
        "e"
      ],
      [
        "m",
        "p"
      ],
      [
        "mp",
        "l"
      ],
      [
        "all",
        "oc"
      ],
      [
        "t",
        "ion"
      ],
      [
        "i",
        "mpl"
      ],
      [
        "_",
        "_"
      ],
      [
        "a",
        "t"
      ],
      [
        "a",
        "b"
      ],
      [
        "e",
        "n"
      ],
      [
        "op",
        "tion"
      ],
      [
        "ab",
        "le"
      ],
      [
        "f",
        "i"
      ],
      [
        "l",
        "o"
      ],
      [
        "_",
        "st"
      ],
      [
        "_",
        "m"
      ],
      [
        "option",
        "s"
      ],
      [
        "o",
        "r"
      ],
      [
        "t",
        "c"
      ],
      [
        "a",
        "n"
      ],
      [
        "o",
        "l"
      ],
      [
        "b",
        "a"
      ],
      [
        "m",
        "alloc"
      ],
      [
        "tc",
        "malloc"
      ],
      [
        "t",
        "er"
      ],
      [
        "db",
        "impl"
      ],
      [
        "o",
        "k"
      ],
      [
        "v",
        "ok"
      ],
      [
        "in",
        "vok"
      ],
      [
        "op",
        "en"
      ],
      [
        "c",
        "on"
      ],
      [
        "ba",
        "s"
      ],
      [
        "a",
        "r"
      ],
      [
        "lo",
        "g"
      ],
      [
        "c",
        "_st"
      ],
      [
        "t",
        "able"
      ],
      [
        "a",
        "d"
      ],
      [
        "ter",
        "n"
      ],
      [
        "invok",
        "e"
      ],
      [
        "u",
        "n"
      ],
      [
        "in",
        "tern"
      ],
      [
        "intern",
        "al"
      ],
      [
        "s",
        "h"
      ],
      [
        "_m",
        "_"
      ],
      [
        "t",
        "h"
      ],
      [
        "g",
        "u"
      ],
      [
        "con",
        "fi"
      ],
      [
        "confi",
        "gu"
      ],
      [
        "i",
        "z"
      ],
      [
        "m",
        "b"
      ],
      [
        "iz",
        "e"
      ],
      [
        "in",
        "g"
      ],
      [
        "r",
        "ing"
      ],
      [
        "w",
        "r"
      ],
      [
        "i",
        "l"
      ],
      [
        "v",
        "er"
      ],
      [
        "c",
        "t"
      ],
      [
        "at",
        "e"
      ],
      [
        "re",
        "ad"
      ],
      [
        "at",
        "or"
      ],
      [
        "t",
        "s"
      ],
      [
        "wr",
        "i"
      ],
      [
        "__",
        "invoke"
      ],
      [
        "th",
        "read"
      ],
      [
        "op",
        "er"
      ],
      [
        "bas",
        "i"
      ],
      [
        "basi",
        "c_st"
      ],
      [
        "basic_st",
        "ring"
      ],
      [
        "basic_string",
        "<>"
      ],
      [
        "f",
        "l"
      ],
      [
        "c",
        "an"
      ],
      [
        "y",
        "mb"
      ],
      [
        "ol",
        "ize"
      ],
      [
        "ts",
        "ymb"
      ],
      [
        "can",
        "tsymb"
      ],
      [
        "olize",
        "  "
      ],
      [
        "cantsymb",
        "olize  "
      ],
      [
        "m",
        "a"
      ],
      [
        "ar",
        "t"
      ],
      [
        "f",
        "a"
      ],
      [
        "in",
        "  "
      ],
      [
        "fi",
        "le"
      ],
      [
        "u",
        "sh"
      ],
      [
        "fl",
        "ush"
      ],
      [
        "n",
        "e"
      ],
      [
        "ne",
        "w"
      ],
      [
        "s",
        "e"
      ],
      [
        "oper",
        "ator"
      ],
      [
        "__",
        "c"
      ],
      [
        "e",
        "<>"
      ],
      [
        "_",
        "alloc"
      ],
      [
        "e",
        "d"
      ],
      [
        "1",
        "1"
      ],
      [
        "x",
        "x"
      ],
      [
        "xx",
        "11"
      ],
      [
        "r",
        "able"
      ],
      [
        "configu",
        "rable"
      ],
      [
        "__c",
        "xx11"
      ],
      [
        "all",
        "<>"
      ],
      [
        "an",
        "d"
      ],
      [
        "r",
        "o"
      ],
      [
        "s",
        "ion"
      ],
      [
        "__invoke",
        "_"
      ],
      [
        "ver",
        "sion"
      ],
      [
        "u",
        "m"
      ],
      [
        "rocksdb",
        "options"
      ],
      [
        "m",
        "il"
      ],
      [
        "n",
        "fa"
      ],
      [
        "ol",
        "um"
      ],
      [
        "mil",
        "y"
      ],
      [
        "nfa",
        "mily"
      ],
      [
        "olum",
        "nfamily"
      ],
      [
        "p",
        "er"
      ],
      [
        "_",
        "s"
      ],
      [
        "impl",
        "<>"
      ],
      [
        "_",
        "internal"
      ],
      [
        "c",
        "olumnfamily"
      ],
      [
        "lo",
        "w"
      ],
      [
        "tcmalloc",
        "_internal"
      ],
      [
        "s",
        "low"
      ],
      [
        "tcmalloc",
        "internal"
      ],
      [
        "slow",
        "_alloc"
      ],
      [
        "_s",
        "m"
      ],
      [
        "slow_alloc",
        "_sm"
      ],
      [
        "slow_alloc_sm",
        "all<>"
      ],
      [
        "tcmallocinternal",
        "new"
      ],
      [
        "tcmallocinternalnew",
        "  "
      ],
      [
        "h",
        "e"
      ],
      [
        "l",
        "i"
      ],
      [
        "l",
        "er"
      ],
      [
        "ct",
        "or"
      ],
      [
        "g",
        "er"
      ],
      [
        "u",
        "t"
      ],
      [
        "c",
        "tion"
      ],
      [
        "p",
        "ar"
      ],
      [
        "m",
        "e"
      ],
      [
        "_m",
        "a"
      ],
      [
        "s",
        "er"
      ],
      [
        "li",
        "b"
      ],
      [
        "configu",
        "re"
      ],
      [
        "__invoke_",
        "impl<>"
      ],
      [
        "log",
        "ger"
      ],
      [
        "and",
        "ler"
      ],
      [
        "log",
        "v"
      ],
      [
        "f",
        "un"
      ],
      [
        "t",
        "e"
      ],
      [
        "_st",
        "art"
      ],
      [
        "__",
        "lib"
      ],
      [
        "c_st",
        "art"
      ],
      [
        "_ma",
        "in  "
      ],
      [
        "_start",
        "  "
      ],
      [
        "__lib",
        "c_start"
      ],
      [
        "__libc_start",
        "_main  "
      ],
      [
        "ma",
        "in  "
      ],
      [
        "r",
        "u"
      ],
      [
        "f",
        "ro"
      ],
      [
        "fro",
        "m"
      ],
      [
        "a",
        "p"
      ],
      [
        "a",
        "re"
      ],
      [
        "se",
        "t"
      ],
      [
        "c",
        "re"
      ],
      [
        "i",
        "st"
      ],
      [
        "fun",
        "ction"
      ],
      [
        "cre",
        "ate"
      ],
      [
        "l",
        "ock"
      ],
      [
        "v",
        "e"
      ],
      [
        "r",
        "<>"
      ],
      [
        "a",
        "c"
      ],
      [
        "c",
        "o"
      ],
      [
        "wri",
        "te"
      ],
      [
        "b",
        "lock"
      ],
      [
        "b",
        "u"
      ],
      [
        "ru",
        "ct"
      ],
      [
        "st",
        "ruct"
      ],
      [
        "e",
        "_"
      ],
      [
        "con",
        "struct"
      ],
      [
        "bu",
        "il"
      ],
      [
        "d",
        "e"
      ],
      [
        "_m_",
        "invoke"
      ],
      [
        "b",
        "g"
      ],
      [
        "construct",
        "<>"
      ],
      [
        "me",
        "m"
      ],
      [
        "ap",
        "p"
      ],
      [
        "ma",
        "p"
      ],
      [
        "buil",
        "d"
      ],
      [
        "_m_",
        "construct<>"
      ],
      [
        "g",
        "e"
      ],
      [
        "version",
        "set"
      ],
      [
        "wri",
        "ter"
      ],
      [
        "c",
        "k"
      ],
      [
        "o",
        "b"
      ],
      [
        "en",
        "d"
      ],
      [
        "rocksdboptions",
        "par"
      ],
      [
        "rocksdboptionspar",
        "ser"
      ],
      [
        "i",
        "t"
      ],
      [
        "er",
        "<>"
      ],
      [
        "__invoke",
        "<>"
      ],
      [
        "_",
        "invok"
      ],
      [
        "_invok",
        "er<>"
      ],
      [
        "ve",
        "ctor"
      ],
      [
        "p",
        "o"
      ],
      [
        "table",
        "file"
      ],
      [
        "mem",
        "table"
      ],
      [
        "_",
        "p"
      ],
      [
        "q",
        "u"
      ],
      [
        "_",
        "t"
      ],
      [
        "_",
        "h"
      ],
      [
        "wri",
        "tablefile"
      ],
      [
        "ba",
        "ck"
      ],
      [
        "s",
        "ist"
      ],
      [
        "i",
        "th"
      ],
      [
        "bas",
        "ed"
      ],
      [
        "version",
        "ed"
      ],
      [
        "r",
        "un"
      ],
      [
        "ith",
        "andler"
      ],
      [
        "versioned",
        "ithandler"
      ],
      [
        "per",
        "sist"
      ],
      [
        "persist",
        "rocksdboptions"
      ],
      [
        "_",
        "r"
      ],
      [
        "c",
        "f"
      ],
      [
        "block",
        "based"
      ],
      [
        "blockbased",
        "table"
      ],
      [
        "sh",
        "are"
      ],
      [
        "share",
        "d"
      ],
      [
        "b",
        "_t"
      ],
      [
        "_r",
        "b_t"
      ],
      [
        "_rb_t",
        "re"
      ],
      [
        "_rb_tre",
        "e<>"
      ],
      [
        "alloc",
        "ate"
      ],
      [
        "in",
        "d"
      ],
      [
        "l",
        "per"
      ],
      [
        "writablefile",
        "writer"
      ],
      [
        "in",
        "it"
      ],
      [
        "from",
        "map"
      ],
      [
        "re",
        "co"
      ],
      [
        "reco",
        "ver"
      ],
      [
        "p",
        "ut"
      ],
      [
        "po",
        "ol"
      ],
      [
        "thread",
        "pool"
      ],
      [
        "threadpool",
        "impl"
      ],
      [
        "he",
        "lper"
      ],
      [
        "db",
        "options"
      ],
      [
        "build",
        "er"
      ],
      [
        "n",
        "o"
      ],
      [
        "bg",
        "thread"
      ],
      [
        "c",
        "u"
      ],
      [
        "l",
        "a"
      ],
      [
        "un",
        "d"
      ],
      [
        "fa",
        "ctor"
      ],
      [
        "_",
        "b"
      ],
      [
        "g",
        "ro"
      ],
      [
        "back",
        "gro"
      ],
      [
        "ind",
        "<>"
      ],
      [
        "_b",
        "ind<>"
      ],
      [
        "backgro",
        "und"
      ],
      [
        "d",
        "a"
      ],
      [
        "{",
        "la"
      ],
      [
        "mb",
        "da"
      ],
      [
        "{la",
        "mbda"
      ],
      [
        "t",
        "y"
      ],
      [
        "flush",
        "memtable"
      ],
      [
        "app",
        "end"
      ],
      [
        "#",
        "1"
      ],
      [
        "#1",
        "}"
      ],
      [
        "_",
        "function"
      ],
      [
        "factor",
        "y"
      ],
      [
        "o",
        "o"
      ],
      [
        "configurable",
        "helper"
      ],
      [
        "ut",
        "put"
      ],
      [
        "oo",
        "utput"
      ],
      [
        "ooutput",
        "file"
      ],
      [
        "function",
        "<>"
      ],
      [
        "par",
        "se"
      ],
      [
        "i",
        "al"
      ],
      [
        "re",
        "p"
      ],
      [
        "andler",
        "<>"
      ],
      [
        "_h",
        "andler<>"
      ],
      [
        "_function",
        "_handler<>"
      ],
      [
        "en",
        "v"
      ],
      [
        "__invoke_",
        "r<>"
      ],
      [
        "j",
        "ob"
      ],
      [
        "i",
        "f"
      ],
      [
        "ial",
        "ize"
      ],
      [
        "flush",
        "job"
      ],
      [
        "d",
        "at"
      ],
      [
        "columnfamily",
        "options"
      ],
      [
        "p",
        "r"
      ],
      [
        "d",
        "u"
      ],
      [
        "du",
        "mp"
      ],
      [
        "_",
        "no"
      ],
      [
        "configure",
        "frommap"
      ],
      [
        "c",
        "ac"
      ],
      [
        "c",
        "all"
      ],
      [
        "ad",
        "er"
      ],
      [
        "env",
        "logger"
      ],
      [
        "f",
        "o"
      ],
      [
        "un",
        "i"
      ],
      [
        "uni",
        "qu"
      ],
      [
        "in",
        "fo"
      ],
      [
        "cac",
        "he"
      ],
      [
        "configure",
        "options"
      ],
      [
        "dat",
        "a"
      ],
      [
        "_",
        "bas"
      ],
      [
        "on",
        "c"
      ],
      [
        "columnfamily",
        "data"
      ],
      [
        "u",
        "table"
      ],
      [
        "ge",
        "t"
      ],
      [
        "st",
        "ring"
      ],
      [
        "st",
        "at"
      ],
      [
        "m",
        "utable"
      ],
      [
        "t",
        "r<>"
      ],
      [
        "create",
        "columnfamily"
      ],
      [
        "rep",
        "are"
      ],
      [
        "stat",
        "s"
      ],
      [
        "_",
        "impl<>"
      ],
      [
        "ate",
        "_impl<>"
      ],
      [
        "_st",
        "ate_impl<>"
      ],
      [
        "_m_",
        "run"
      ],
      [
        "_m_invoke",
        "<>"
      ],
      [
        "he",
        "ader"
      ],
      [
        "p",
        "e"
      ],
      [
        "__",
        "shared"
      ],
      [
        "i",
        "m"
      ],
      [
        "options",
        "file"
      ],
      [
        "init",
        "ialize"
      ],
      [
        "pr",
        "oper"
      ],
      [
        "e",
        "x"
      ],
      [
        "write",
        "optionsfile"
      ],
      [
        "n",
        "a"
      ],
      [
        "t",
        "r"
      ],
      [
        "log",
        "header"
      ],
      [
        "_",
        "ex"
      ],
      [
        "e",
        "cu"
      ],
      [
        "_p",
        "repare"
      ],
      [
        "_ex",
        "ecu"
      ],
      [
        "_prepare",
        "_execu"
      ],
      [
        "_prepare_execu",
        "tion"
      ],
      [
        "vector",
        "<>"
      ],
      [
        "ma",
        "k"
      ],
      [
        "ad",
        "d"
      ],
      [
        "re",
        "g"
      ],
      [
        "reg",
        "ist"
      ],
      [
        "ty",
        "pe"
      ],
      [
        "if",
        "y"
      ],
      [
        "i",
        "ter"
      ],
      [
        "uniqu",
        "e<>"
      ],
      [
        "ator",
        "<>"
      ],
      [
        "in",
        "ser"
      ],
      [
        "option",
        "type"
      ],
      [
        "optiontype",
        "info"
      ],
      [
        "__",
        "new"
      ],
      [
        "_alloc",
        "ator<>"
      ],
      [
        "__new",
        "_allocator<>"
      ],
      [
        "w",
        "or"
      ],
      [
        "wor",
        "k"
      ],
      [
        "inser",
        "t"
      ],
      [
        "_",
        "vector"
      ],
      [
        "_vector",
        "_bas"
      ],
      [
        "cf",
        "options"
      ],
      [
        "ver",
        "ify"
      ],
      [
        "wr",
        "ap"
      ],
      [
        "wrap",
        "per"
      ],
      [
        "regist",
        "er"
      ],
      [
        "mak",
        "e_"
      ],
      [
        "na",
        "me"
      ],
      [
        "_p",
        "tr<>"
      ],
      [
        "bgthread",
        "wrapper"
      ],
      [
        "__c",
        "all<>"
      ],
      [
        "bg",
        "work"
      ],
      [
        "background",
        "call"
      ],
      [
        "bgwork",
        "flush"
      ],
      [
        "backgroundcall",
        "flush"
      ],
      [
        "im",
        "mutable"
      ],
      [
        "u",
        "s"
      ],
      [
        "un",
        "t"
      ],
      [
        "co",
        "unt"
      ],
      [
        "bas",
        "e"
      ],
      [
        "e",
        "s"
      ],
      [
        "blockbasedtable",
        "builder"
      ],
      [
        "from",
        "file"
      ],
      [
        "background",
        "flush"
      ],
      [
        "st",
        "ooutputfile"
      ],
      [
        "flushmemtable",
        "stooutputfile"
      ],
      [
        "flushmemtablestooutputfile",
        "s"
      ],
      [
        "rocksdboptions",
        "fromfile"
      ],
      [
        "verify",
        "rocksdboptionsfromfile"
      ],
      [
        "t",
        "ooutputfile"
      ],
      [
        "flushmemtable",
        "tooutputfile"
      ],
      [
        "c",
        "op"
      ],
      [
        "d",
        "e<>"
      ],
      [
        "a",
        "s"
      ],
      [
        "_",
        "count"
      ],
      [
        "ac",
        "e"
      ],
      [
        "_vector_bas",
        "e<>"
      ],
      [
        "blockbasedtable",
        "factory"
      ],
      [
        "s",
        "i"
      ],
      [
        "_",
        "onc"
      ],
      [
        "l",
        "y"
      ],
      [
        "_m_",
        "allocate"
      ],
      [
        "app",
        "ly"
      ],
      [
        "_no",
        "de"
      ],
      [
        "le",
        "ve"
      ],
      [
        "leve",
        "l"
      ],
      [
        "make_",
        "unique<>"
      ],
      [
        "m",
        "o"
      ],
      [
        "immutable",
        "dboptions"
      ],
      [
        "log",
        "and"
      ],
      [
        "s",
        "p"
      ],
      [
        " ",
        "name"
      ],
      [
        "y",
        "mo"
      ],
      [
        "on",
        "ymo"
      ],
      [
        "an",
        "onymo"
      ],
      [
        "us",
        " name"
      ],
      [
        "sp",
        "ace"
      ],
      [
        "anonymo",
        "us name"
      ],
      [
        "anonymous name",
        "space"
      ],
      [
        "iter",
        "ate"
      ],
      [
        "de",
        "qu"
      ],
      [
        "columnfamily",
        "set"
      ],
      [
        "f",
        "or"
      ],
      [
        "cop",
        "y"
      ],
      [
        "versionedithandler",
        "base"
      ],
      [
        "logand",
        "apply"
      ],
      [
        "a",
        "sh"
      ],
      [
        "_no",
        "de<>"
      ],
      [
        "level",
        "0"
      ],
      [
        "write",
        "level0"
      ],
      [
        "proper",
        "ty"
      ],
      [
        "writelevel0",
        "table"
      ],
      [
        "e",
        "ct"
      ],
      [
        "j",
        "ect"
      ],
      [
        "ob",
        "ject"
      ],
      [
        "o",
        "m"
      ],
      [
        "se",
        "ction"
      ],
      [
        "end",
        "section"
      ],
      [
        "and",
        "init"
      ],
      [
        "create",
        "cf"
      ],
      [
        "createcf",
        "andinit"
      ],
      [
        "from",
        "string"
      ],
      [
        "create",
        "fromstring"
      ],
      [
        "_m_",
        "create"
      ],
      [
        "_h",
        "ash"
      ],
      [
        "_hash",
        "table"
      ],
      [
        "build",
        "table"
      ],
      [
        "copy",
        "<>"
      ],
      [
        "configurable",
        "cfoptions"
      ],
      [
        "l",
        "ru"
      ],
      [
        "ler",
        "e"
      ],
      [
        "__shared",
        "_count"
      ],
      [
        "a",
        "g"
      ],
      [
        "fl",
        "ag"
      ],
      [
        "__shared_count",
        "<>"
      ],
      [
        "s",
        "o"
      ],
      [
        "t",
        "ab"
      ],
      [
        "st",
        "om"
      ],
      [
        "cu",
        "stom"
      ],
      [
        "tab",
        "lere"
      ],
      [
        "or",
        "d"
      ],
      [
        "e",
        "mpl"
      ],
      [
        "empl",
        "ac"
      ],
      [
        "u",
        "l"
      ],
      [
        "call",
        "_onc"
      ],
      [
        "call_onc",
        "e<>"
      ],
      [
        "internal",
        "stats"
      ],
      [
        "e_",
        "flag"
      ],
      [
        "onc",
        "e_flag"
      ],
      [
        "_prepare_execution",
        "<>"
      ],
      [
        "t",
        "i"
      ],
      [
        "_",
        "dequ"
      ],
      [
        "_dequ",
        "e_"
      ],
      [
        "__shared",
        "_ptr<>"
      ],
      [
        "m",
        "an"
      ],
      [
        "e",
        "st"
      ],
      [
        "a",
        "i"
      ],
      [
        "p",
        "ai"
      ],
      [
        "block",
        "builder"
      ],
      [
        "dboptions",
        "configurable"
      ],
      [
        "if",
        "est"
      ],
      [
        "ge",
        "tc"
      ],
      [
        "emplac",
        "e_"
      ],
      [
        "for",
        "m"
      ],
      [
        "a",
        "ge"
      ],
      [
        "ser",
        "ialize"
      ],
      [
        "t",
        "o"
      ],
      [
        "configurefrommap",
        "<>"
      ],
      [
        "_hashtable",
        "<>"
      ],
      [
        "parse",
        "option"
      ],
      [
        "table",
        "cache"
      ],
      [
        "proper",
        "ti"
      ],
      [
        "tr",
        "y"
      ],
      [
        "getc",
        "olumnfamily"
      ],
      [
        "lru",
        "cache"
      ],
      [
        "options",
        "frommap"
      ],
      [
        "_m_",
        "re"
      ],
      [
        "getcolumnfamily",
        "optionsfrommap"
      ],
      [
        "property",
        "blockbuilder"
      ],
      [
        "shared",
        "_ptr<>"
      ],
      [
        "insert",
        "<>"
      ],
      [
        "file",
        "s"
      ],
      [
        "ar",
        "y"
      ],
      [
        "me",
        "options"
      ],
      [
        "configure",
        "so"
      ],
      [
        "configureso",
        "meoptions"
      ],
      [
        "bas",
        "e<>"
      ],
      [
        "_ma",
        "p"
      ],
      [
        "_deque_",
        "base<>"
      ],
      [
        "pai",
        "r<>"
      ],
      [
        "configure",
        "option"
      ],
      [
        "man",
        "ifest"
      ],
      [
        "operator",
        "="
      ],
      [
        "_m_",
        "insert"
      ],
      [
        "register",
        "options"
      ],
      [
        "t",
        "a"
      ],
      [
        "c",
        "ord"
      ],
      [
        "st",
        "r"
      ],
      [
        "iz",
        "able"
      ],
      [
        "po",
        "si"
      ],
      [
        "custom",
        "izable"
      ],
      [
        "posi",
        "x"
      ],
      [
        "re",
        "cord"
      ],
      [
        "_m_insert",
        "_"
      ],
      [
        "p",
        "at"
      ],
      [
        "li",
        "st"
      ],
      [
        "properti",
        "es"
      ],
      [
        "map",
        "<>"
      ],
      [
        "_",
        "insert<>"
      ],
      [
        "_m_",
        "copy<>"
      ],
      [
        "es",
        "s"
      ],
      [
        "r",
        "ary"
      ],
      [
        "le",
        "te"
      ],
      [
        "lib",
        "rary"
      ],
      [
        "object",
        "library"
      ],
      [
        "_m_create",
        "_node<>"
      ],
      [
        "or",
        "age"
      ],
      [
        "e",
        "m"
      ],
      [
        "oc",
        "ess"
      ],
      [
        "back",
        "<>"
      ],
      [
        "emplace_",
        "back<>"
      ],
      [
        "as",
        "configurable"
      ],
      [
        "p",
        "tr<>"
      ],
      [
        "write",
        "s"
      ],
      [
        "pr",
        "ocess"
      ],
      [
        "manifest",
        "writes"
      ],
      [
        "process",
        "manifestwrites"
      ],
      [
        "ta",
        "il"
      ],
      [
        "form",
        "at"
      ],
      [
        "_m",
        "_m"
      ],
      [
        "version",
        "builder"
      ],
      [
        "in",
        "i"
      ],
      [
        "ar",
        "d"
      ],
      [
        "de",
        "tail"
      ],
      [
        "f",
        "ini"
      ],
      [
        "fini",
        "sh"
      ],
      [
        "alloc",
        "_insert<>"
      ],
      [
        "_m_re",
        "alloc_insert<>"
      ],
      [
        "_",
        "fun"
      ],
      [
        "d",
        "i"
      ],
      [
        "c",
        "lo"
      ],
      [
        "clo",
        "se"
      ],
      [
        "configure",
        "customizable"
      ],
      [
        "configurecustomizable",
        "option"
      ],
      [
        "mem",
        "tablere"
      ],
      [
        "memtablere",
        "p"
      ],
      [
        "co",
        "mp"
      ],
      [
        "uniqu",
        "e_"
      ],
      [
        "i",
        "o"
      ],
      [
        "ut",
        "ate"
      ],
      [
        "_m_m",
        "utate"
      ],
      [
        "_",
        "a"
      ],
      [
        "memtablerep",
        "factory"
      ],
      [
        "c",
        "ed"
      ],
      [
        "__",
        "detail"
      ],
      [
        "re",
        "s"
      ],
      [
        "i",
        "d"
      ],
      [
        "t",
        "_"
      ],
      [
        "g",
        "thread"
      ],
      [
        "__",
        "gthread"
      ],
      [
        "_onc",
        "e"
      ],
      [
        "__gthread",
        "_once"
      ],
      [
        "a",
        "ger"
      ],
      [
        "_m_",
        "get"
      ],
      [
        "properties",
        "block"
      ],
      [
        "_m_get",
        "_node"
      ],
      [
        "en",
        "try"
      ],
      [
        "er",
        "ed"
      ],
      [
        "str",
        "_"
      ],
      [
        "_",
        "copy<>"
      ],
      [
        "cf",
        "stats"
      ],
      [
        "add",
        "factory"
      ],
      [
        "tablere",
        "ader"
      ],
      [
        "ab",
        "s"
      ],
      [
        "sh",
        "ard"
      ],
      [
        "abs",
        "l"
      ],
      [
        "g",
        "n"
      ],
      [
        "_alloc",
        "_node"
      ],
      [
        "v",
        "an"
      ],
      [
        "ad",
        "van"
      ],
      [
        "ced",
        "columnfamilyoptions"
      ],
      [
        "advan",
        "cedcolumnfamilyoptions"
      ],
      [
        "get",
        "string"
      ],
      [
        "_p",
        "tr"
      ],
      [
        "t",
        "in"
      ],
      [
        "buil",
        "tin"
      ],
      [
        "register",
        "builtin"
      ],
      [
        "re",
        "n"
      ],
      [
        "_bas",
        "e"
      ],
      [
        "serialize",
        "options"
      ],
      [
        "recover",
        "y"
      ],
      [
        "dboptions",
        "asconfigurable"
      ],
      [
        "_m_",
        "as"
      ],
      [
        "si",
        "gn"
      ],
      [
        "_m_as",
        "sign"
      ],
      [
        "0",
        "2"
      ],
      [
        "0",
        "8"
      ],
      [
        "1",
        "4"
      ],
      [
        "2",
        "02"
      ],
      [
        "5",
        "08"
      ],
      [
        "_",
        "202"
      ],
      [
        "l",
        "ts"
      ],
      [
        "508",
        "14"
      ],
      [
        "_202",
        "50814"
      ],
      [
        "lts",
        "_20250814"
      ],
      [
        "c",
        "al"
      ],
      [
        "h",
        "and"
      ],
      [
        "p",
        "_count"
      ],
      [
        "operator",
        "+"
      ],
      [
        "_s",
        "p_count"
      ],
      [
        "for",
        "recovery"
      ],
      [
        "logandapply",
        "forrecovery"
      ],
      [
        "hand",
        "le"
      ],
      [
        "_sp_count",
        "ed"
      ],
      [
        "r",
        "a"
      ],
      [
        "c",
        "h"
      ],
      [
        "m",
        "er"
      ],
      [
        "mer",
        "ge"
      ],
      [
        "bu",
        "f"
      ],
      [
        "operator+",
        "<>"
      ],
      [
        "y",
        "st"
      ],
      [
        "st",
        "all"
      ],
      [
        "merge",
        "operator"
      ],
      [
        "object",
        "<>"
      ],
      [
        "add",
        "record"
      ],
      [
        "files",
        "yst"
      ],
      [
        "r",
        "ren"
      ],
      [
        "fa",
        "ul"
      ],
      [
        "de",
        "faul"
      ],
      [
        "rren",
        "t"
      ],
      [
        "ut",
        "o"
      ],
      [
        "as",
        "custom"
      ],
      [
        "_a",
        "uto"
      ],
      [
        "i",
        "p"
      ],
      [
        "mutable",
        "cfoptions"
      ],
      [
        "pat",
        "h"
      ],
      [
        "f",
        "ind"
      ],
      [
        "~",
        "dbimpl"
      ],
      [
        "addfactory",
        "<>"
      ],
      [
        "_m_",
        "append"
      ],
      [
        "l",
        "ac"
      ],
      [
        "t",
        "im"
      ],
      [
        "in",
        "p"
      ],
      [
        "tim",
        "er"
      ],
      [
        "_",
        "inp"
      ],
      [
        "_ptr",
        "_inp"
      ],
      [
        "_sp_counted",
        "_ptr_inp"
      ],
      [
        "filesyst",
        "em"
      ],
      [
        "lac",
        "e<>"
      ],
      [
        "_sp_counted_ptr_inp",
        "lace<>"
      ],
      [
        "un",
        "ord"
      ],
      [
        "write",
        "propertiesblock"
      ],
      [
        "res",
        "ul"
      ],
      [
        "unord",
        "ered"
      ],
      [
        "_st",
        "orage"
      ],
      [
        "_vector_bas",
        "e"
      ],
      [
        "_m_create",
        "_storage"
      ],
      [
        "w",
        "al"
      ],
      [
        "per",
        "io"
      ],
      [
        "perio",
        "di"
      ],
      [
        "registeroptions",
        "<>"
      ],
      [
        "[",
        "]"
      ],
      [
        "operator",
        "[]"
      ],
      [
        "de",
        "lete"
      ],
      [
        "__",
        "un"
      ],
      [
        "unordered",
        "_map"
      ],
      [
        "v",
        "al"
      ],
      [
        "k",
        "ip"
      ],
      [
        "p",
        "tr"
      ],
      [
        "are",
        "na"
      ],
      [
        "ob",
        "so"
      ],
      [
        "kip",
        "list"
      ],
      [
        "obso",
        "lete"
      ],
      [
        "c",
        "e"
      ],
      [
        "initialize",
        "d"
      ],
      [
        "defaul",
        "t_"
      ],
      [
        "buf",
        "f"
      ],
      [
        "en",
        "t"
      ],
      [
        "iter",
        "ator"
      ],
      [
        ":",
        "c"
      ],
      [
        "[",
        "ab"
      ],
      [
        "i",
        ":c"
      ],
      [
        "st",
        "orage"
      ],
      [
        "re",
        "ser"
      ],
      [
        "xx11",
        "]"
      ],
      [
        "version",
        "storage"
      ],
      [
        "[ab",
        "i:c"
      ],
      [
        "versionstorage",
        "info"
      ],
      [
        "[abi:c",
        "xx11]"
      ],
      [
        "db",
        "path"
      ],
      [
        "shard",
        "ed"
      ],
      [
        "reser",
        "ve"
      ],
      [
        "shared",
        "<>"
      ],
      [
        "make_",
        "shared<>"
      ],
      [
        "de",
        "le"
      ],
      [
        "_m_insert_",
        "unique<>"
      ],
      [
        "s",
        "kiplist"
      ],
      [
        "tern",
        "entry"
      ],
      [
        "pat",
        "ternentry"
      ],
      [
        "dat",
        "ab"
      ],
      [
        "format",
        "_internal"
      ],
      [
        "str_",
        "format_internal"
      ],
      [
        "option",
        "string"
      ],
      [
        "shared",
        "ptr<>"
      ],
      [
        "dump",
        "stats"
      ],
      [
        "ascustom",
        "sharedptr<>"
      ],
      [
        "posix",
        "filesystem"
      ],
      [
        "b",
        "e"
      ],
      [
        "a",
        "se"
      ],
      [
        "g",
        "en"
      ],
      [
        "h",
        "y"
      ],
      [
        "p",
        "hy"
      ],
      [
        "in",
        "stall"
      ],
      [
        "memtable",
        "list"
      ],
      [
        "cu",
        "rrent"
      ],
      [
        "si",
        "cal"
      ],
      [
        "skiplist",
        "factory"
      ],
      [
        "phy",
        "sical"
      ],
      [
        "physical",
        "record"
      ],
      [
        "new",
        "iterator"
      ],
      [
        "it",
        "physicalrecord"
      ],
      [
        "em",
        "itphysicalrecord"
      ],
      [
        "p",
        "repare"
      ],
      [
        "an",
        "ager"
      ],
      [
        "ed",
        "u"
      ],
      [
        "ch",
        "edu"
      ],
      [
        "_",
        "construct<>"
      ],
      [
        "s",
        "li"
      ],
      [
        "_m_insert_",
        "<>"
      ],
      [
        "obsolete",
        "files"
      ],
      [
        "sli",
        "ce"
      ],
      [
        "c",
        "he"
      ],
      [
        "p",
        "op"
      ],
      [
        "table",
        "property"
      ],
      [
        "get",
        "optionstring"
      ],
      [
        "add",
        "tableproperty"
      ],
      [
        "ul",
        "ate"
      ],
      [
        "che",
        "ck"
      ],
      [
        "pop",
        "ulate"
      ],
      [
        "_",
        "cache"
      ],
      [
        "s",
        "st"
      ],
      [
        "s",
        "chedu"
      ],
      [
        "_alloc",
        "<>"
      ],
      [
        "_hashtable",
        "_alloc<>"
      ],
      [
        "lru",
        "_cache"
      ],
      [
        "resul",
        "ts"
      ],
      [
        "shared",
        "object<>"
      ],
      [
        "val",
        "id"
      ],
      [
        "c",
        "y"
      ],
      [
        "no",
        "de<>"
      ],
      [
        "initialize",
        "options"
      ],
      [
        "s",
        "an"
      ],
      [
        "table",
        "builder"
      ],
      [
        "ize",
        "options"
      ],
      [
        "write",
        "to"
      ],
      [
        "it",
        "izeoptions"
      ],
      [
        "_m_allocate",
        "_"
      ],
      [
        "san",
        "itizeoptions"
      ],
      [
        "writeto",
        "wal"
      ],
      [
        "ed",
        "options"
      ],
      [
        "dump",
        "cfstats"
      ],
      [
        "unordered_map",
        "<>"
      ],
      [
        "valid",
        "ate"
      ],
      [
        "t",
        "e<>"
      ],
      [
        "unique_",
        "ptr<>"
      ],
      [
        "default_",
        "dele"
      ],
      [
        "validate",
        "options"
      ],
      [
        "default_dele",
        "te<>"
      ],
      [
        "i",
        "es"
      ],
      [
        "getstring",
        "property"
      ],
      [
        "find",
        "table"
      ],
      [
        "new",
        "tablebuilder"
      ],
      [
        "get",
        "tablereader"
      ],
      [
        "mak",
        "e"
      ],
      [
        "flush",
        "results"
      ],
      [
        "memtable",
        "flushresults"
      ],
      [
        "try",
        "install"
      ],
      [
        "tryinstall",
        "memtableflushresults"
      ],
      [
        "in",
        "de"
      ],
      [
        "datab",
        "ase"
      ],
      [
        "populate",
        "database"
      ],
      [
        "inde",
        "x"
      ],
      [
        "s",
        "u"
      ],
      [
        "ma",
        "y"
      ],
      [
        "re",
        "a"
      ],
      [
        "register",
        "edoptions"
      ],
      [
        "r",
        "y"
      ],
      [
        "regist",
        "ry"
      ],
      [
        "object",
        "registry"
      ],
      [
        "s",
        "form"
      ],
      [
        "y",
        "p"
      ],
      [
        "an",
        "sform"
      ],
      [
        "tr",
        "ansform"
      ],
      [
        "slice",
        "transform"
      ],
      [
        "st",
        "ro"
      ],
      [
        "new",
        "tablereader"
      ],
      [
        "de",
        "stro"
      ],
      [
        "destro",
        "y"
      ],
      [
        "g",
        "ra"
      ],
      [
        "h",
        "in"
      ],
      [
        "h",
        "ist"
      ],
      [
        "o",
        "gra"
      ],
      [
        "file",
        "hist"
      ],
      [
        "emplace_",
        "hin"
      ],
      [
        "cfstats",
        "periodi"
      ],
      [
        "handle",
        "cfstatsperiodi"
      ],
      [
        "__un",
        "initialized"
      ],
      [
        "ogra",
        "m"
      ],
      [
        "filehist",
        "ogram"
      ],
      [
        "handlecfstatsperiodi",
        "c"
      ],
      [
        "_",
        "options"
      ],
      [
        "e",
        "lper"
      ],
      [
        "~",
        "unique_"
      ],
      [
        "ar",
        "ator"
      ],
      [
        "e_",
        "info"
      ],
      [
        "_t",
        "yp"
      ],
      [
        "_bas",
        "e<>"
      ],
      [
        "_options",
        "_typ"
      ],
      [
        "~unique_",
        "ptr"
      ],
      [
        "_options_typ",
        "e_info"
      ],
      [
        "no",
        "filehistogram"
      ],
      [
        "dequ",
        "e<>"
      ],
      [
        "comp",
        "arator"
      ],
      [
        "dumpcfstats",
        "nofilehistogram"
      ],
      [
        "a",
        "tion"
      ],
      [
        "may",
        "be"
      ],
      [
        "f",
        "s"
      ],
      [
        "_m",
        "anager"
      ],
      [
        "new",
        "db"
      ],
      [
        "_function",
        "_base"
      ],
      [
        "man",
        "ager"
      ],
      [
        "close",
        "helper"
      ],
      [
        "_base",
        "_manager"
      ],
      [
        "sst",
        "file"
      ],
      [
        "_base_manager",
        "<>"
      ],
      [
        "_m_",
        "initialize"
      ],
      [
        "_s",
        "cop"
      ],
      [
        "dequ",
        "e"
      ],
      [
        "_deque_",
        "base"
      ],
      [
        "_m_initialize",
        "_map"
      ],
      [
        "_scop",
        "ed"
      ],
      [
        "e",
        "v"
      ],
      [
        "cfoptions",
        "asconfigurable"
      ],
      [
        "getstring",
        "from"
      ],
      [
        "destroy",
        "db"
      ],
      [
        "sstfile",
        "manager"
      ],
      [
        "to",
        "string"
      ],
      [
        "or",
        "t"
      ],
      [
        "tc",
        "h"
      ],
      [
        "init",
        "_copy<>"
      ],
      [
        "factor",
        "ies"
      ],
      [
        "k",
        "impl"
      ],
      [
        "close",
        "impl"
      ],
      [
        "schedu",
        "ler"
      ],
      [
        "c",
        "at"
      ],
      [
        "__",
        "str_"
      ],
      [
        "lo",
        "ad"
      ],
      [
        "con",
        "cat"
      ],
      [
        "ti",
        "me"
      ],
      [
        "__str_",
        "concat"
      ],
      [
        "__str_concat",
        "<>"
      ],
      [
        "_m_",
        "emplace_hin"
      ],
      [
        "blockbasedtable",
        "options"
      ],
      [
        "cache",
        "us"
      ],
      [
        "mutable",
        "dboptions"
      ],
      [
        "age",
        "options"
      ],
      [
        "t_",
        "unique<>"
      ],
      [
        "_auto",
        "_node"
      ],
      [
        "_auto",
        "_node<>"
      ],
      [
        "_m_emplace_hin",
        "t_unique<>"
      ],
      [
        "cacheus",
        "ageoptions"
      ],
      [
        "e",
        "y"
      ],
      [
        "k",
        "ey"
      ],
      [
        "buff",
        "er"
      ],
      [
        "c",
        "l"
      ],
      [
        "n",
        "c"
      ],
      [
        "s",
        "in"
      ],
      [
        "y",
        "nc"
      ],
      [
        "on",
        "e_"
      ],
      [
        "_m_",
        "cl"
      ],
      [
        "sin",
        "kimpl"
      ],
      [
        "one_",
        "node<>"
      ],
      [
        "_m_cl",
        "one_node<>"
      ],
      [
        "st",
        "ate"
      ],
      [
        "_m_allocate",
        "_node<>"
      ],
      [
        "rea",
        "m"
      ],
      [
        "c",
        "ol"
      ],
      [
        "e",
        "ts"
      ],
      [
        "log",
        "flush"
      ],
      [
        "_m_",
        "construct"
      ],
      [
        "bu",
        "ck"
      ],
      [
        "shared",
        "cache"
      ],
      [
        "_m_allocate_",
        "buck"
      ],
      [
        "make",
        "sharedcache"
      ],
      [
        "col",
        "le"
      ],
      [
        "_m_allocate_buck",
        "ets"
      ],
      [
        "h",
        "e<>"
      ],
      [
        "new",
        "lrucache"
      ],
      [
        "lrucache",
        "options"
      ],
      [
        "new",
        "sharedobject<>"
      ],
      [
        "verify",
        "dboptions"
      ],
      [
        "emplac",
        "e<>"
      ],
      [
        "sstfilemanager",
        "impl"
      ],
      [
        "t",
        "om"
      ],
      [
        "st",
        "ream"
      ],
      [
        "an",
        "ifest"
      ],
      [
        "table",
        "factory"
      ],
      [
        "write",
        "current"
      ],
      [
        "state",
        "tom"
      ],
      [
        "writecurrent",
        "statetom"
      ],
      [
        "writecurrentstatetom",
        "anifest"
      ],
      [
        "h",
        "ash"
      ],
      [
        "pai",
        "r"
      ],
      [
        "p",
        "u"
      ],
      [
        "level",
        "stats"
      ],
      [
        "_m_construct",
        "_node<>"
      ],
      [
        "s",
        "ync"
      ],
      [
        "gen",
        "er"
      ],
      [
        "registerbuiltin",
        "memtablerepfactory"
      ],
      [
        "ra",
        "w"
      ],
      [
        "db",
        "lock"
      ],
      [
        "er",
        "thread"
      ],
      [
        "configurable",
        "mutablecfoptions"
      ],
      [
        "work",
        "erthread"
      ],
      [
        "time",
        "based"
      ],
      [
        "workerthread",
        "timebased"
      ],
      [
        "u",
        "p"
      ],
      [
        "cac",
        "he<>"
      ],
      [
        "sharded",
        "cache"
      ],
      [
        "sharded",
        "cache<>"
      ],
      [
        "b",
        "y"
      ],
      [
        "d",
        "o"
      ],
      [
        "p",
        "ort"
      ],
      [
        "al",
        "i"
      ],
      [
        "re",
        "f"
      ],
      [
        "write",
        "impl"
      ],
      [
        "comp",
        "res"
      ],
      [
        "_",
        "immutable"
      ],
      [
        "re",
        "set"
      ],
      [
        "ed",
        "<>"
      ],
      [
        "write",
        "block"
      ],
      [
        "map",
        "stats"
      ],
      [
        "cf",
        "_immutable"
      ],
      [
        "_m_re",
        "hash"
      ],
      [
        "cf_immutable",
        "_options_type_info"
      ],
      [
        "y",
        "pe"
      ],
      [
        "table",
        "properties"
      ],
      [
        "_m_",
        "rep"
      ],
      [
        "gu",
        "ard"
      ],
      [
        "par",
        "set"
      ],
      [
        "parset",
        "ype"
      ],
      [
        "in",
        "t"
      ],
      [
        "read",
        "propertiesblock"
      ],
      [
        "dboptions",
        "frommap"
      ],
      [
        "dump",
        "cf"
      ],
      [
        "get",
        "dboptionsfrommap"
      ],
      [
        "posix",
        "writablefile"
      ],
      [
        "fs",
        "writablefile"
      ],
      [
        "l",
        "ace"
      ],
      [
        "file",
        "name"
      ],
      [
        "_m_rep",
        "lace"
      ],
      [
        "<",
        "<"
      ],
      [
        "_",
        "guard"
      ],
      [
        "re",
        "ctor"
      ],
      [
        "__",
        "allocate"
      ],
      [
        "en",
        "cy"
      ],
      [
        "con",
        "sist"
      ],
      [
        "operator",
        "<<"
      ],
      [
        "lock",
        "ed"
      ],
      [
        "di",
        "rector"
      ],
      [
        "dbpath",
        "s"
      ],
      [
        "check",
        "consist"
      ],
      [
        "dumpcf",
        "mapstats"
      ],
      [
        "_guard",
        "ed<>"
      ],
      [
        "__allocate",
        "_guarded<>"
      ],
      [
        "checkconsist",
        "ency"
      ],
      [
        "b",
        "l"
      ],
      [
        "e",
        "sh"
      ],
      [
        "s",
        "on"
      ],
      [
        "table",
        "properti"
      ],
      [
        "read",
        "tableproperti"
      ],
      [
        "write",
        "buff"
      ],
      [
        "bl",
        "ocks"
      ],
      [
        "esh",
        "elper"
      ],
      [
        "readtableproperti",
        "eshelper"
      ],
      [
        "writebuff",
        "ered"
      ],
      [
        "registerbuiltin",
        "mergeoperator"
      ],
      [
        "registerbuiltinmergeoperator",
        "s"
      ],
      [
        "l",
        "oc"
      ],
      [
        "parse",
        "struct"
      ],
      [
        "uniqu",
        "e"
      ],
      [
        "string",
        "to"
      ],
      [
        "f",
        "er"
      ],
      [
        "i",
        "cal"
      ],
      [
        "r",
        "ge"
      ],
      [
        "s",
        "w"
      ],
      [
        "log",
        "ical"
      ],
      [
        "table",
        "factories"
      ],
      [
        "flush",
        "locked"
      ],
      [
        "register",
        "tablefactories"
      ],
      [
        "pu",
        "rge"
      ],
      [
        "blocks",
        "ize"
      ],
      [
        "logical",
        "blocksize"
      ],
      [
        "purge",
        "obsoletefiles"
      ],
      [
        "i",
        "cy"
      ],
      [
        "p",
        "ol"
      ],
      [
        "x",
        "t"
      ],
      [
        "con",
        "te"
      ],
      [
        "flush",
        "block"
      ],
      [
        "__uninitialized",
        "_"
      ],
      [
        "pol",
        "icy"
      ],
      [
        "se",
        "dblock"
      ],
      [
        "write",
        "maybe"
      ],
      [
        "compres",
        "sedblock"
      ],
      [
        "writemaybe",
        "compressedblock"
      ],
      [
        "p",
        "ush"
      ],
      [
        "se",
        "qu"
      ],
      [
        "si",
        "te"
      ],
      [
        "ent",
        "logger"
      ],
      [
        "ent",
        "ial"
      ],
      [
        "validateoptions",
        "by"
      ],
      [
        "ev",
        "entlogger"
      ],
      [
        "flushblock",
        "policy"
      ],
      [
        "sequ",
        "ential"
      ],
      [
        "validateoptionsby",
        "table"
      ],
      [
        "a",
        "ve"
      ],
      [
        "g",
        "ne"
      ],
      [
        "s",
        "ave"
      ],
      [
        "un",
        "ac"
      ],
      [
        "no",
        "t"
      ],
      [
        "count",
        "ed"
      ],
      [
        "ali",
        "gne"
      ],
      [
        "unac",
        "counted"
      ],
      [
        "k",
        "scheduler"
      ],
      [
        "o",
        "site"
      ],
      [
        "ct",
        "as"
      ],
      [
        "ctor",
        "<>"
      ],
      [
        "comp",
        "osite"
      ],
      [
        "periodi",
        "ctas"
      ],
      [
        "loc",
        "al"
      ],
      [
        "not",
        "ify"
      ],
      [
        "composite",
        "env"
      ],
      [
        "periodictas",
        "kscheduler"
      ],
      [
        "dump",
        "db"
      ],
      [
        "getstringfrom",
        "dboptions"
      ],
      [
        "stringto",
        "map"
      ],
      [
        "push",
        "_"
      ],
      [
        "_",
        "un"
      ],
      [
        "i",
        "tch"
      ],
      [
        "_m_",
        "copy"
      ],
      [
        "new",
        "writablefile"
      ],
      [
        "write",
        "stall"
      ],
      [
        "_rb_tre",
        "e"
      ],
      [
        "format",
        "sinkimpl"
      ],
      [
        "addfactory",
        "entry"
      ],
      [
        "prepare",
        "levelstats"
      ],
      [
        "sw",
        "itch"
      ],
      [
        "push_",
        "back"
      ],
      [
        "switch",
        "memtable"
      ],
      [
        "u",
        "x"
      ],
      [
        "er",
        "e"
      ],
      [
        "at",
        "ch"
      ],
      [
        "_a",
        "<>"
      ],
      [
        "tostring",
        "[abi:cxx11]"
      ],
      [
        "l",
        "in"
      ],
      [
        "db",
        "configurable"
      ],
      [
        "mutable",
        "dbconfigurable"
      ],
      [
        "_m_allocate",
        "_node"
      ],
      [
        "_m_allocate",
        "_map"
      ],
      [
        "_node",
        "s"
      ],
      [
        "_m_create",
        "_nodes"
      ],
      [
        "_scoped",
        "_node"
      ],
      [
        "_scoped",
        "_node<>"
      ],
      [
        "save",
        "to"
      ],
      [
        "b",
        "atch"
      ],
      [
        "j",
        "son"
      ],
      [
        "u",
        "rrent"
      ],
      [
        "json",
        "writer"
      ],
      [
        "__",
        "do"
      ],
      [
        "at",
        "en"
      ],
      [
        "un",
        "initialized"
      ],
      [
        "write",
        "batch"
      ],
      [
        "fo",
        "re"
      ],
      [
        "copy",
        "_a<>"
      ],
      [
        "__un",
        "init_copy<>"
      ],
      [
        "__uninitialized",
        "_copy<>"
      ],
      [
        "director",
        "y"
      ],
      [
        "conte",
        "xt"
      ],
      [
        "__uninitialized_",
        "copy_a<>"
      ],
      [
        "_un",
        "init_copy<>"
      ],
      [
        "__do",
        "_uninit_copy<>"
      ],
      [
        "uninitialized",
        "_copy<>"
      ],
      [
        "b",
        "str"
      ],
      [
        "stat",
        "us"
      ],
      [
        "su",
        "bstr"
      ],
      [
        "_",
        "re"
      ],
      [
        "u",
        "se"
      ],
      [
        "er",
        "r"
      ],
      [
        "en",
        "ced"
      ],
      [
        "bas",
        "ere"
      ],
      [
        "thread",
        "s"
      ],
      [
        "new",
        "object<>"
      ],
      [
        "background",
        "threads"
      ],
      [
        "get",
        "impl"
      ],
      [
        "_m_insert_",
        "unique_"
      ],
      [
        "unique",
        "id"
      ],
      [
        "fer",
        "enced"
      ],
      [
        "basere",
        "ferenced"
      ],
      [
        "basereferenced",
        "versionbuilder"
      ],
      [
        "_",
        "io"
      ],
      [
        "_m_",
        "init"
      ],
      [
        "se",
        "tc"
      ],
      [
        "_m_create",
        "<>"
      ],
      [
        "posix",
        "env"
      ],
      [
        "_fun",
        "ctor<>"
      ],
      [
        "getstringfrom",
        "columnfamilyoptions"
      ],
      [
        "load",
        "sharedobject<>"
      ],
      [
        "_io",
        "_"
      ],
      [
        "_m_init",
        "_functor<>"
      ],
      [
        "index",
        "builder"
      ],
      [
        "c",
        "r"
      ],
      [
        "e",
        "tch"
      ],
      [
        "con",
        "current"
      ],
      [
        "lrucache",
        "shard"
      ],
      [
        "_map",
        "_base<>"
      ],
      [
        "concurrent",
        "arena"
      ],
      [
        "a",
        "ction"
      ],
      [
        "e",
        "w"
      ],
      [
        "en",
        "th"
      ],
      [
        "malloc",
        "  "
      ],
      [
        "tcmallocinternal",
        "malloc  "
      ],
      [
        "pr",
        "int"
      ],
      [
        "comp",
        "action"
      ],
      [
        "ascustom",
        "raw"
      ],
      [
        "elper",
        "s"
      ],
      [
        "ev",
        "enth"
      ],
      [
        "aligne",
        "d"
      ],
      [
        "aten",
        "ew"
      ],
      [
        "ascustomraw",
        "ptr<>"
      ],
      [
        "eventh",
        "elpers"
      ],
      [
        "c",
        "_"
      ],
      [
        "st",
        "art"
      ],
      [
        "basi",
        "c_"
      ],
      [
        "columnfamily",
        "handle"
      ],
      [
        "cre",
        "ation"
      ],
      [
        "tablefile",
        "creation"
      ],
      [
        "verify",
        "cfoptions"
      ],
      [
        "register",
        "dbpaths"
      ],
      [
        "logand",
        "notify"
      ],
      [
        "finish",
        "ed"
      ],
      [
        "prepare",
        "write"
      ],
      [
        "load",
        "table"
      ],
      [
        "colle",
        "ct"
      ],
      [
        "_re",
        "use"
      ],
      [
        "err",
        "or"
      ],
      [
        "columnfamilyhandle",
        "impl"
      ],
      [
        "tablefilecreation",
        "finished"
      ],
      [
        "logandnotify",
        "tablefilecreationfinished"
      ],
      [
        "_",
        "or"
      ],
      [
        "iter",
        "ation"
      ],
      [
        "resul",
        "t"
      ],
      [
        "check",
        "iteration"
      ],
      [
        "shardedcache",
        "base"
      ],
      [
        "flushblockpolicy",
        "factory"
      ],
      [
        "checkiteration",
        "result"
      ],
      [
        "u",
        "mb"
      ],
      [
        "fi",
        "lere"
      ],
      [
        "new",
        "memtable"
      ],
      [
        "and",
        "_copy<>"
      ],
      [
        "per",
        "version"
      ],
      [
        "construct",
        "newmemtable"
      ],
      [
        "posix",
        "helper"
      ],
      [
        "delete",
        "scheduler"
      ],
      [
        "delete",
        "unaccounted"
      ],
      [
        "_m_allocate_",
        "and_copy<>"
      ],
      [
        "su",
        "perversion"
      ],
      [
        "sequential",
        "file"
      ],
      [
        "urrent",
        "file"
      ],
      [
        "setc",
        "urrentfile"
      ],
      [
        "umb",
        "er"
      ],
      [
        "w",
        "ith"
      ],
      [
        "o",
        "f"
      ],
      [
        "serialize",
        "struct"
      ],
      [
        "registerbuiltin",
        "slicetransform"
      ],
      [
        "delete",
        "obsoletefiles"
      ],
      [
        "schedu",
        "le"
      ],
      [
        "i",
        "tion"
      ],
      [
        "en",
        "um"
      ],
      [
        "_m",
        "utable"
      ],
      [
        "flush",
        "<>"
      ],
      [
        "create",
        "wal"
      ],
      [
        "cf",
        "_mutable"
      ],
      [
        "lru",
        "handle"
      ],
      [
        "format",
        "raw"
      ],
      [
        "io",
        "error"
      ],
      [
        "_a",
        "ux"
      ],
      [
        "_m_assign",
        "<>"
      ],
      [
        "find",
        "obsoletefiles"
      ],
      [
        "ref",
        "and"
      ],
      [
        "_m_rehash",
        "_aux"
      ],
      [
        "_reuse",
        "_or"
      ],
      [
        "enum",
        "<>"
      ],
      [
        "cf_mutable",
        "_options_type_info"
      ],
      [
        "lruhandle",
        "table"
      ],
      [
        "formatraw",
        "sinkimpl"
      ],
      [
        "_reuse_or",
        "_alloc_node"
      ],
      [
        "e",
        "u"
      ],
      [
        "qu",
        "eu"
      ],
      [
        "versioned",
        "it"
      ],
      [
        "eventlogger",
        "stream"
      ],
      [
        "in",
        "e"
      ],
      [
        "me",
        "ta"
      ],
      [
        "ac",
        "k"
      ],
      [
        "detail",
        "s"
      ],
      [
        "checkconsistency",
        "details"
      ],
      [
        "f",
        "n"
      ],
      [
        "ne",
        "ed"
      ],
      [
        "_alloc",
        "node<>"
      ],
      [
        "ed",
        "it"
      ],
      [
        "version",
        "be"
      ],
      [
        "create",
        "versionbe"
      ],
      [
        "parse",
        "fn"
      ],
      [
        "if",
        "need"
      ],
      [
        "apply",
        "edit"
      ],
      [
        "maybe",
        "createversionbe"
      ],
      [
        "tablefactory",
        "parsefn"
      ],
      [
        "gener",
        "ate"
      ],
      [
        "fore",
        "applyedit"
      ],
      [
        "filere",
        "ader"
      ],
      [
        "ifneed",
        "ed"
      ],
      [
        "maybecreateversionbe",
        "foreapplyedit"
      ],
      [
        "c",
        "backgroundthreads"
      ],
      [
        "h",
        "andler"
      ],
      [
        "l",
        "ter"
      ],
      [
        "p",
        "port"
      ],
      [
        "u",
        "f"
      ],
      [
        "in",
        "cbackgroundthreads"
      ],
      [
        "fi",
        "lter"
      ],
      [
        "new",
        "logger"
      ],
      [
        "no",
        "de"
      ],
      [
        "header",
        "v"
      ],
      [
        "immutable",
        "options"
      ],
      [
        "_m_m",
        "anager"
      ],
      [
        "registerbuiltin",
        "comparator"
      ],
      [
        "defaul",
        "t"
      ],
      [
        "su",
        "pport"
      ],
      [
        "_m_insert_unique_",
        "node"
      ],
      [
        "loadtable",
        "handler"
      ],
      [
        "incbackgroundthreads",
        "ifneeded"
      ],
      [
        "registerbuiltincomparator",
        "s"
      ],
      [
        "loadtablehandler",
        "s"
      ],
      [
        "m",
        "ary"
      ],
      [
        "r",
        "and"
      ],
      [
        "um",
        "mary"
      ],
      [
        "files",
        "ummary"
      ],
      [
        "val",
        "u"
      ],
      [
        "dumpdb",
        "filesummary"
      ],
      [
        " ",
        "<>"
      ],
      [
        "_",
        "insert"
      ],
      [
        "open",
        "writablefile"
      ],
      [
        "dump",
        "support"
      ],
      [
        "operator<<",
        " <>"
      ],
      [
        "_insert",
        "_base<>"
      ],
      [
        "dumpsupport",
        "info"
      ],
      [
        "thread",
        "<>"
      ],
      [
        "lock",
        "iter"
      ],
      [
        "d",
        "ren"
      ],
      [
        "h",
        "il"
      ],
      [
        "p",
        "art"
      ],
      [
        "s",
        "um"
      ],
      [
        "at",
        "er"
      ],
      [
        "_m_",
        "emplace<>"
      ],
      [
        "file",
        "check"
      ],
      [
        "block",
        "iter"
      ],
      [
        "getc",
        "hil"
      ],
      [
        "buf",
        "<>"
      ],
      [
        "sst",
        "part"
      ],
      [
        "colle",
        "ctor"
      ],
      [
        "sync",
        "manifest"
      ],
      [
        "gener",
        "ater"
      ],
      [
        "print",
        "levelstats"
      ],
      [
        "compaction",
        "filter"
      ],
      [
        "ition",
        "er"
      ],
      [
        "sum",
        "gen"
      ],
      [
        "filecheck",
        "sumgen"
      ],
      [
        "getchil",
        "dren"
      ],
      [
        "sstpart",
        "itioner"
      ],
      [
        "st",
        "key"
      ],
      [
        "la",
        "stkey"
      ],
      [
        "add",
        "with"
      ],
      [
        "addwith",
        "lastkey"
      ],
      [
        "n",
        "umber"
      ],
      [
        "db",
        "id"
      ],
      [
        "lock",
        "file"
      ],
      [
        "tr",
        "im"
      ],
      [
        "immutable",
        "cfoptions"
      ],
      [
        "io",
        "status"
      ],
      [
        "fswritablefile",
        "ptr"
      ],
      [
        "dbpaths",
        "[abi:cxx11]"
      ],
      [
        "valu",
        "e"
      ],
      [
        "o",
        "ver"
      ],
      [
        "p",
        "ref"
      ],
      [
        "u",
        "re"
      ],
      [
        "db",
        "file"
      ],
      [
        "internal",
        "key"
      ],
      [
        "thread",
        "local"
      ],
      [
        "file",
        "dele"
      ],
      [
        "li",
        "m"
      ],
      [
        "te",
        "mp"
      ],
      [
        "set",
        "up"
      ],
      [
        "serialize",
        "type"
      ],
      [
        "writebatch",
        "internal"
      ],
      [
        "pref",
        "etch"
      ],
      [
        "filedele",
        "tion"
      ],
      [
        "c",
        "le"
      ],
      [
        "d",
        "uniqueid"
      ],
      [
        "m",
        "ist"
      ],
      [
        "alloc",
        "atenew"
      ],
      [
        "file",
        "_"
      ],
      [
        "se",
        "mist"
      ],
      [
        "logger",
        "from"
      ],
      [
        "create",
        "loggerfrom"
      ],
      [
        "ruct",
        "ure"
      ],
      [
        "flag",
        "s"
      ],
      [
        "serialize",
        "enum<>"
      ],
      [
        "list",
        "<>"
      ],
      [
        "make",
        "filename"
      ],
      [
        "reset",
        "<>"
      ],
      [
        "_io_",
        "file_"
      ],
      [
        "start",
        "periodictaskscheduler"
      ],
      [
        "duniqueid",
        "gen"
      ],
      [
        "semist",
        "ructure"
      ],
      [
        "createloggerfrom",
        "options"
      ],
      [
        "semistructure",
        "duniqueidgen"
      ],
      [
        "datab",
        "lockiter"
      ],
      [
        "d",
        "ate"
      ],
      [
        "f",
        "d"
      ],
      [
        "f",
        "low"
      ],
      [
        "log",
        "buffer"
      ],
      [
        "_m_",
        "insert<>"
      ],
      [
        "se",
        "ed"
      ],
      [
        "delete",
        "obsolete"
      ],
      [
        "_",
        "thread"
      ],
      [
        "en",
        "ed"
      ],
      [
        "sh",
        "ort"
      ],
      [
        "read",
        "er"
      ],
      [
        "addwithlastkey",
        "impl"
      ],
      [
        "ened",
        "indexbuilder"
      ],
      [
        "short",
        "enedindexbuilder"
      ],
      [
        "o",
        "stream"
      ],
      [
        "p",
        "ed"
      ],
      [
        "s",
        "po"
      ],
      [
        "s",
        "put"
      ],
      [
        "x",
        "sput"
      ],
      [
        "~",
        "writer"
      ],
      [
        "~",
        "__shared"
      ],
      [
        "~",
        "__shared_count"
      ],
      [
        "~",
        "sstfilemanagerimpl"
      ],
      [
        "~",
        "columnfamilyhandleimpl"
      ],
      [
        "all",
        "dbpaths[abi:cxx11]"
      ],
      [
        "le",
        "ase"
      ],
      [
        "_m_",
        "di"
      ],
      [
        "co",
        "de"
      ],
      [
        "build",
        "dboptions"
      ],
      [
        "memtable",
        "inser"
      ],
      [
        "allocate",
        "aligned"
      ],
      [
        "ty",
        "ped"
      ],
      [
        "job",
        "context"
      ],
      [
        "get",
        "logicalblocksize"
      ],
      [
        "_m_re",
        "lease"
      ],
      [
        "di",
        "r"
      ],
      [
        "_sp_counted",
        "_base<>"
      ],
      [
        "stream",
        "<>"
      ],
      [
        "logicalblocksize",
        "cache"
      ],
      [
        "sequential",
        "filereader"
      ],
      [
        "dumpdb",
        "stats"
      ],
      [
        "collect",
        "alldbpaths[abi:cxx11]"
      ],
      [
        "over",
        "flow"
      ],
      [
        "threadlocal",
        "ptr"
      ],
      [
        "flags",
        "_internal"
      ],
      [
        "spo",
        "se"
      ],
      [
        "xsput",
        "n"
      ],
      [
        "~__shared",
        "_ptr"
      ],
      [
        "_m_di",
        "spose"
      ],
      [
        "memtableinser",
        "ter"
      ],
      [
        "se",
        "e"
      ],
      [
        "blockiter",
        "<>"
      ],
      [
        "3",
        "2"
      ],
      [
        "f",
        "etch"
      ],
      [
        "g",
        "e<>"
      ],
      [
        "i",
        "cr"
      ],
      [
        "m",
        "ine"
      ],
      [
        "o",
        "st"
      ],
      [
        "s",
        "cr"
      ],
      [
        "t",
        "or"
      ],
      [
        "t",
        "ad"
      ],
      [
        "u",
        "id"
      ],
      [
        "at",
        "a"
      ],
      [
        "ter",
        "mine"
      ],
      [
        "_m_",
        "default_"
      ],
      [
        "ate",
        "lim"
      ],
      [
        "file",
        "impl"
      ],
      [
        "me",
        "tad"
      ],
      [
        "set",
        "<>"
      ],
      [
        "cre",
        "atenew"
      ],
      [
        "block",
        "fetch"
      ],
      [
        "de",
        "scr"
      ],
      [
        "de",
        "termine"
      ],
      [
        "cache",
        "entry"
      ],
      [
        "ex",
        "t"
      ],
      [
        "ip",
        "tor"
      ],
      [
        "index",
        "block"
      ],
      [
        "gener",
        "icr"
      ],
      [
        "up",
        "dat"
      ],
      [
        "unaccounted",
        "filedeletion"
      ],
      [
        "deleteunaccounted",
        "file"
      ],
      [
        "deleteunaccounted",
        "dbfile"
      ],
      [
        "of",
        "directory"
      ],
      [
        "schedule",
        "unaccountedfiledeletion"
      ],
      [
        "setup",
        "dbid"
      ],
      [
        "atelim",
        "iter"
      ],
      [
        "metad",
        "ata"
      ],
      [
        "createnew",
        "memtable"
      ],
      [
        "blockfetch",
        "er"
      ],
      [
        "descr",
        "iptor"
      ],
      [
        "determine",
        "seed"
      ],
      [
        "genericr",
        "atelimiter"
      ],
      [
        "#",
        "2"
      ],
      [
        "p",
        "ack"
      ],
      [
        "s",
        "fs"
      ],
      [
        "y",
        "sfs"
      ],
      [
        "~",
        "formatsinkimpl"
      ],
      [
        "__",
        "ostream"
      ],
      [
        "en",
        "tr"
      ],
      [
        "tc",
        "f"
      ],
      [
        "invoke",
        "flush<>"
      ],
      [
        "un",
        "refand"
      ],
      [
        "un",
        "typed"
      ],
      [
        "th",
        "ost"
      ],
      [
        "file",
        "value"
      ],
      [
        "se",
        "q"
      ],
      [
        "version",
        "append"
      ],
      [
        "map",
        "p"
      ],
      [
        "ge",
        "thost"
      ],
      [
        "it",
        "y"
      ],
      [
        "tablefile",
        "name"
      ],
      [
        "flushjob",
        "info"
      ],
      [
        "cache",
        "logicalblocksize"
      ],
      [
        "get",
        "queu"
      ],
      [
        "get",
        "flushjobinfo"
      ],
      [
        "register",
        "flushblockpolicy"
      ],
      [
        "name",
        "string"
      ],
      [
        "es",
        "ysfs"
      ],
      [
        "for",
        "versionappend"
      ],
      [
        "str",
        "format"
      ],
      [
        "format",
        "flush"
      ],
      [
        "format",
        "pack"
      ],
      [
        "format",
        "untyped"
      ],
      [
        "absl",
        "formatflush"
      ],
      [
        "prepare",
        "append"
      ],
      [
        "prepare",
        "forversionappend"
      ],
      [
        "dumpcfstats",
        "writestall"
      ],
      [
        "pu",
        "tcf"
      ],
      [
        "director",
        "ies"
      ],
      [
        "lin",
        "e"
      ],
      [
        "of",
        "fd"
      ],
      [
        "refand",
        "cachelogicalblocksize"
      ],
      [
        "filechecksumgen",
        "factory"
      ],
      [
        "sstpartitioner",
        "factory"
      ],
      [
        "#2",
        "}"
      ],
      [
        "__ostream",
        "_insert<>"
      ],
      [
        "unrefand",
        "try"
      ],
      [
        "gethost",
        "namestring"
      ],
      [
        "getqueu",
        "esysfs"
      ],
      [
        "registerflushblockpolicy",
        "factories"
      ],
      [
        "strformat",
        "<>"
      ],
      [
        "formatpack",
        "[abi:cxx11]"
      ],
      [
        "getqueuesysfs",
        "filevalue"
      ],
      [
        "#",
        "3"
      ],
      [
        "a",
        "ux"
      ],
      [
        "c",
        "alloc"
      ],
      [
        "h",
        "shard"
      ],
      [
        "t",
        "<>"
      ],
      [
        "op",
        "y"
      ],
      [
        "en",
        "code"
      ],
      [
        "en",
        "ext"
      ],
      [
        "tc",
        "ac"
      ],
      [
        "ing",
        "le"
      ],
      [
        "tcmallocinternal",
        "posix"
      ],
      [
        "tcmallocinternal",
        "calloc"
      ],
      [
        "ac",
        "hshard"
      ],
      [
        "e_",
        "aligned"
      ],
      [
        "mem",
        "ali"
      ],
      [
        "init",
        "shard"
      ],
      [
        "cache",
        "lin"
      ],
      [
        "res",
        "ize"
      ],
      [
        "gn",
        "  "
      ],
      [
        "emplace_hin",
        "t<>"
      ],
      [
        "fore",
        "achshard"
      ],
      [
        "entr",
        "opy"
      ],
      [
        "#3",
        "}"
      ],
      [
        "tcac",
        "he"
      ],
      [
        "tcmallocinternalposix",
        "memali"
      ],
      [
        "tcmallocinternalcalloc",
        "  "
      ],
      [
        "e_aligned",
        "_alloc"
      ],
      [
        "initshard",
        "s"
      ],
      [
        "cachelin",
        "e_aligned_alloc"
      ],
      [
        "tcmallocinternalposixmemali",
        "gn  "
      ],
      [
        "a",
        "w"
      ],
      [
        "e",
        "mp"
      ],
      [
        "m",
        "al"
      ],
      [
        "n",
        "or"
      ],
      [
        "o",
        "th"
      ],
      [
        "q",
        "_ptr"
      ],
      [
        "s",
        "sion"
      ],
      [
        "v",
        "ar"
      ],
      [
        "~",
        "versionset"
      ],
      [
        "~",
        "writablefilewriter"
      ],
      [
        "db",
        "uf"
      ],
      [
        "er",
        "name"
      ],
      [
        "__",
        "uni"
      ],
      [
        "an",
        "oth"
      ],
      [
        "table",
        "collector"
      ],
      [
        "mb",
        "uf"
      ],
      [
        "ize",
        "path"
      ],
      [
        "basic_st",
        "rea"
      ],
      [
        "basic_string",
        "buf<>"
      ],
      [
        "file",
        "number"
      ],
      [
        "file",
        "metadata"
      ],
      [
        "new",
        "sstfilemanager"
      ],
      [
        "new",
        "unique"
      ],
      [
        "new",
        "directory"
      ],
      [
        "se",
        "ssion"
      ],
      [
        "set",
        "backgroundthreads"
      ],
      [
        "no",
        "to"
      ],
      [
        "bgthread",
        "s"
      ],
      [
        "tr",
        "ack"
      ],
      [
        "id",
        "[abi:cxx11]"
      ],
      [
        "filesyst",
        "emp"
      ],
      [
        "default_",
        "n"
      ],
      [
        "install",
        "superversion"
      ],
      [
        "time",
        "mapp"
      ],
      [
        "dumpcfmapstats",
        "writestall"
      ],
      [
        "son",
        "finish"
      ],
      [
        "aligne",
        "dbuf"
      ],
      [
        "notify",
        "collect"
      ],
      [
        "start",
        "bgthreads"
      ],
      [
        "basic_",
        "file"
      ],
      [
        "basic_",
        "if"
      ],
      [
        "meta",
        "indexbuilder"
      ],
      [
        "generater",
        "aw"
      ],
      [
        "allocatenew",
        "buffer"
      ],
      [
        "deleteobsolete",
        "fileimpl"
      ],
      [
        "_m_default_",
        "append"
      ],
      [
        "seq",
        "noto"
      ],
      [
        "unrefandtry",
        "delete"
      ],
      [
        "mal",
        "izepath"
      ],
      [
        "nor",
        "malizepath"
      ],
      [
        "q_ptr",
        "_impl<>"
      ],
      [
        "var",
        "int"
      ],
      [
        "__uni",
        "q_ptr_impl<>"
      ],
      [
        "anoth",
        "ername"
      ],
      [
        "tablecollector",
        "sonfinish"
      ],
      [
        "mbuf",
        "<>"
      ],
      [
        "basic_strea",
        "mbuf<>"
      ],
      [
        "newunique",
        "object<>"
      ],
      [
        "setbackgroundthreads",
        "internal"
      ],
      [
        "filesystemp",
        "tr"
      ],
      [
        "timemapp",
        "ing"
      ],
      [
        "alignedbuf",
        "fer"
      ],
      [
        "notifycollect",
        "tablecollectorsonfinish"
      ],
      [
        "generateraw",
        "uniqueid"
      ],
      [
        "seqnoto",
        "timemapping"
      ],
      [
        "add",
        "index"
      ],
      [
        "index",
        "reader"
      ],
      [
        "addindex",
        "entry"
      ],
      [
        "_",
        "emplace<>"
      ],
      [
        "u",
        "r"
      ],
      [
        "x",
        "it"
      ],
      [
        "db",
        "session"
      ],
      [
        "rocksdb",
        "build"
      ],
      [
        "re",
        "name"
      ],
      [
        "en",
        "ts"
      ],
      [
        "ate",
        "xit"
      ],
      [
        "file",
        "to"
      ],
      [
        "dump",
        "rocksdbbuild"
      ],
      [
        "get",
        "options"
      ],
      [
        "get",
        "tableproperties"
      ],
      [
        "logandapply",
        "helper"
      ],
      [
        "try",
        "_emplace<>"
      ],
      [
        "id",
        "ent"
      ],
      [
        "maybe",
        "updat"
      ],
      [
        "_m_insert_unique_",
        "aux"
      ],
      [
        "queu",
        "e<>"
      ],
      [
        "temp",
        "fileto"
      ],
      [
        "descriptor",
        "filename"
      ],
      [
        "enext",
        "filenumber"
      ],
      [
        "rename",
        "tempfileto"
      ],
      [
        "dumprocksdbbuild",
        "version"
      ],
      [
        "ident",
        "ity"
      ],
      [
        "maybeupdat",
        "enextfilenumber"
      ],
      [
        "_m_insert_unique_aux",
        "<>"
      ],
      [
        "renametempfileto",
        "optionsfile"
      ],
      [
        "see",
        "k"
      ],
      [
        "6",
        "4"
      ],
      [
        "_",
        "atexit"
      ],
      [
        "c",
        "c"
      ],
      [
        "g",
        "options"
      ],
      [
        "l",
        "ar"
      ],
      [
        "o",
        "ma"
      ],
      [
        "s",
        "ingle"
      ],
      [
        "x",
        "a"
      ],
      [
        "x",
        "ed"
      ],
      [
        "db",
        "stats"
      ],
      [
        "st",
        "an"
      ],
      [
        "in",
        "lin"
      ],
      [
        "in",
        "stan"
      ],
      [
        "re",
        "mo"
      ],
      [
        "re",
        "local"
      ],
      [
        "fi",
        "xed"
      ],
      [
        "ol",
        "ler"
      ],
      [
        "con",
        "tr"
      ],
      [
        "ar",
        "writer"
      ],
      [
        "ar",
        "ra"
      ],
      [
        "log",
        "wri"
      ],
      [
        "tern",
        "umber"
      ],
      [
        "confi",
        "goptions"
      ],
      [
        "ing",
        "wrapper"
      ],
      [
        "file",
        "info"
      ],
      [
        "file",
        "prefetch"
      ],
      [
        "__c",
        "xa"
      ],
      [
        "he",
        "ad"
      ],
      [
        "set",
        "identity"
      ],
      [
        "ac",
        "ingwrapper"
      ],
      [
        "co",
        "relocal"
      ],
      [
        "write",
        "contr"
      ],
      [
        "tr",
        "acingwrapper"
      ],
      [
        "es",
        "kiplist"
      ],
      [
        "om",
        "_internal"
      ],
      [
        "handle",
        "dbstats"
      ],
      [
        "compres",
        "sion"
      ],
      [
        "print",
        "results"
      ],
      [
        "rand",
        "om_internal"
      ],
      [
        "cle",
        "arwriter"
      ],
      [
        "varint",
        "32"
      ],
      [
        "cc",
        "ess"
      ],
      [
        "oma",
        "ccess"
      ],
      [
        "inlin",
        "eskiplist"
      ],
      [
        "instan",
        "ce"
      ],
      [
        "remo",
        "ve"
      ],
      [
        "arra",
        "y"
      ],
      [
        "logwri",
        "ternumber"
      ],
      [
        "fileprefetch",
        "buffer"
      ],
      [
        "setidentity",
        "file"
      ],
      [
        "corelocal",
        "array"
      ],
      [
        "writecontr",
        "oller"
      ],
      [
        "inlineskiplist",
        "<>"
      ],
      [
        "b",
        "in"
      ],
      [
        "bin",
        "ary"
      ],
      [
        " ",
        "rocksdb"
      ],
      [
        " ",
        "ro"
      ],
      [
        " ",
        "for"
      ],
      [
        "-",
        "local"
      ],
      [
        "_",
        "context"
      ],
      [
        "f",
        "cu"
      ],
      [
        "f",
        "_context"
      ],
      [
        "g",
        "th"
      ],
      [
        "m",
        "ut"
      ],
      [
        "n",
        "gth"
      ],
      [
        "o",
        "string"
      ],
      [
        "p",
        "re"
      ],
      [
        "x",
        "tcache"
      ],
      [
        "in",
        "str"
      ],
      [
        "le",
        "ngth"
      ],
      [
        "alloc",
        "buf"
      ],
      [
        "option",
        "helper"
      ],
      [
        "thread",
        "-local"
      ],
      [
        "ne",
        "xt"
      ],
      [
        "new",
        "sequentialfile"
      ],
      [
        "ed",
        "mut"
      ],
      [
        "um",
        "ent"
      ],
      [
        "per",
        "f_context"
      ],
      [
        "ut",
        "ine"
      ],
      [
        "write",
        "indexblock"
      ],
      [
        "blockbasedtable",
        "properties"
      ],
      [
        "allocate",
        "  "
      ],
      [
        "put",
        "length"
      ],
      [
        "stats",
        "colle"
      ],
      [
        "tr",
        "i"
      ],
      [
        "getc",
        "urrent"
      ],
      [
        "serialize",
        "single"
      ],
      [
        "manifest",
        "path"
      ],
      [
        "posix",
        "sequentialfile"
      ],
      [
        "rea",
        "dblock"
      ],
      [
        "buffer",
        "to"
      ],
      [
        "up",
        "date"
      ],
      [
        "do",
        "allocbuf"
      ],
      [
        "do",
        "allocate  "
      ],
      [
        "conte",
        "xtcache"
      ],
      [
        "__uninitialized_",
        "default_n"
      ],
      [
        "_io_",
        "doallocbuf"
      ],
      [
        "generater",
        "fcu"
      ],
      [
        "_io_file_",
        "doallocate  "
      ],
      [
        "_thread",
        "_atexit"
      ],
      [
        "cacheentry",
        "statscolle"
      ],
      [
        "encode",
        "to"
      ],
      [
        "basic_file",
        "buf<>"
      ],
      [
        "fixed",
        "slice"
      ],
      [
        "__cxa",
        "_thread_atexit"
      ],
      [
        "compression",
        "contextcache"
      ],
      [
        " ro",
        "utine"
      ],
      [
        " for",
        " rocksdb"
      ],
      [
        "pre",
        "fixedslice"
      ],
      [
        "instr",
        "ument"
      ],
      [
        "thread-local",
        " "
      ],
      [
        "edmut",
        "ex"
      ],
      [
        "perf_context",
        "  "
      ],
      [
        "blockbasedtableproperties",
        "collector"
      ],
      [
        "putlength",
        "prefixedslice"
      ],
      [
        "getcurrent",
        "manifestpath"
      ],
      [
        "serializesingle",
        "optionhelper"
      ],
      [
        "_io_doallocbuf",
        "  "
      ],
      [
        "generaterfcu",
        "uid"
      ],
      [
        "cacheentrystatscolle",
        "ctor<>"
      ],
      [
        " routine",
        " for rocksdb"
      ],
      [
        "instrument",
        "edmutex"
      ],
      [
        "_",
        "destroy"
      ],
      [
        "_",
        "set<>"
      ],
      [
        "_",
        "lar"
      ],
      [
        "b",
        "lo"
      ],
      [
        "c",
        "ap"
      ],
      [
        "c",
        "la"
      ],
      [
        "i",
        "c"
      ],
      [
        "k",
        "cla"
      ],
      [
        "m",
        "s"
      ],
      [
        "m",
        "ent"
      ],
      [
        "s",
        "s"
      ],
      [
        "t",
        "oc"
      ],
      [
        "u",
        "64"
      ],
      [
        "~",
        "shared"
      ],
      [
        "~",
        "envlogger"
      ],
      [
        "in",
        "to"
      ],
      [
        "alloc",
        "ation"
      ],
      [
        "an",
        "g"
      ],
      [
        "an",
        "up"
      ],
      [
        "open",
        "  "
      ],
      [
        "open",
        "dir"
      ],
      [
        "log",
        "filename"
      ],
      [
        "ts",
        "impl<>"
      ],
      [
        "can",
        "di"
      ],
      [
        "flush",
        "bufferto"
      ],
      [
        "slow_alloc",
        "_lar"
      ],
      [
        "create",
        "memtablerep"
      ],
      [
        "ac",
        "he<>"
      ],
      [
        "write",
        "buffer"
      ],
      [
        "block",
        "fromfile"
      ],
      [
        "add",
        "number"
      ],
      [
        "flag",
        "<>"
      ],
      [
        "flag",
        "impl"
      ],
      [
        "_m_insert",
        "_r"
      ],
      [
        "posix",
        "directory"
      ],
      [
        "_sp_counted",
        "_ptr<>"
      ],
      [
        "unordered",
        "_set<>"
      ],
      [
        "make",
        "tablefilename"
      ],
      [
        "may",
        "b"
      ],
      [
        "comparator",
        "with"
      ],
      [
        "fs",
        "ync"
      ],
      [
        "up",
        "le"
      ],
      [
        "basic_",
        "ostring"
      ],
      [
        "loadtable",
        "s"
      ],
      [
        "ioerror",
        "ms"
      ],
      [
        "cle",
        "anup"
      ],
      [
        "date",
        "fileinfo"
      ],
      [
        "getlogicalblocksize",
        "ofdirectory"
      ],
      [
        "dir",
        "fsync"
      ],
      [
        "omaccess",
        "file"
      ],
      [
        "_destroy",
        "<>"
      ],
      [
        "kcla",
        "ss"
      ],
      [
        "toc",
        "ache<>"
      ],
      [
        "u64",
        "tsimpl<>"
      ],
      [
        "~shared",
        "_ptr"
      ],
      [
        "opendir",
        "  "
      ],
      [
        "candi",
        "datefileinfo"
      ],
      [
        "flushbufferto",
        "log"
      ],
      [
        "slow_alloc_lar",
        "ge<>"
      ],
      [
        "comparatorwith",
        "u64tsimpl<>"
      ],
      [
        "basic_ostring",
        "stream<>"
      ],
      [
        "ioerrorms",
        "g"
      ],
      [
        "dirfsync",
        "options"
      ],
      [
        "kclass",
        "name"
      ],
      [
        "_",
        "d"
      ],
      [
        "_",
        "create"
      ],
      [
        "l",
        "s"
      ],
      [
        "l",
        "_alloc"
      ],
      [
        "p",
        "thread"
      ],
      [
        "_m",
        "_start"
      ],
      [
        "ar",
        "ch"
      ],
      [
        "ate",
        "_t"
      ],
      [
        "_d",
        "l_alloc"
      ],
      [
        "_create",
        "  "
      ],
      [
        "ls",
        "  "
      ],
      [
        "pthread",
        "_create  "
      ],
      [
        "_m_start",
        "_thread"
      ],
      [
        "ate_t",
        "ls  "
      ],
      [
        "_dl_alloc",
        "ate_tls  "
      ],
      [
        "d",
        "er"
      ],
      [
        "e",
        "ve"
      ],
      [
        "e",
        "optionstring"
      ],
      [
        "i",
        "v"
      ],
      [
        "l",
        "ate"
      ],
      [
        "r",
        "ang"
      ],
      [
        "~",
        "eventloggerstream"
      ],
      [
        "re",
        "sh"
      ],
      [
        "re",
        "tri"
      ],
      [
        "an",
        "ge<>"
      ],
      [
        "un",
        "es"
      ],
      [
        "thread",
        "status"
      ],
      [
        "file",
        "add"
      ],
      [
        "new",
        "index"
      ],
      [
        "block",
        "<>"
      ],
      [
        "po",
        "int"
      ],
      [
        "pr",
        "i"
      ],
      [
        "get",
        "id[abi:cxx11]"
      ],
      [
        "insert",
        "into"
      ],
      [
        "register",
        "filechecksumgen"
      ],
      [
        "register",
        "sstpartitioner"
      ],
      [
        "apply",
        "fileadd"
      ],
      [
        "registerbuiltin",
        "compactionfilter"
      ],
      [
        "operator+",
        "="
      ],
      [
        "sync",
        "point"
      ],
      [
        "ref",
        "resh"
      ],
      [
        "superversion",
        "context"
      ],
      [
        "rand",
        "en"
      ],
      [
        "getlogicalblocksize",
        "offd"
      ],
      [
        "putcf",
        "impl<>"
      ],
      [
        "line",
        "filereader"
      ],
      [
        "getqueuesysfsfilevalue",
        "ofdirectory"
      ],
      [
        "getqueuesysfsfilevalue",
        "offd"
      ],
      [
        "dbsession",
        "id"
      ],
      [
        "cap",
        "eoptionstring"
      ],
      [
        "_m_insert_r",
        "ange<>"
      ],
      [
        "der",
        "iv"
      ],
      [
        "eve",
        "block<>"
      ],
      [
        "retri",
        "eveblock<>"
      ],
      [
        "unes",
        "capeoptionstring"
      ],
      [
        "newindex",
        "iterator"
      ],
      [
        "registerfilechecksumgen",
        "factories"
      ],
      [
        "registersstpartitioner",
        "factories"
      ],
      [
        "applyfileadd",
        "ition"
      ],
      [
        "registerbuiltincompactionfilter",
        "s"
      ],
      [
        "refresh",
        "deriv"
      ],
      [
        "refreshderiv",
        "edoptions"
      ],
      [
        "se",
        "arch"
      ],
      [
        "binary",
        "search"
      ],
      [
        "binarysearch",
        "indexreader"
      ],
      [
        "_",
        "build"
      ],
      [
        "a",
        "head"
      ],
      [
        "f",
        "all"
      ],
      [
        "g",
        "in"
      ],
      [
        "l",
        "all"
      ],
      [
        "n",
        "on"
      ],
      [
        "s",
        "or"
      ],
      [
        "t",
        "ents"
      ],
      [
        "u",
        "uid"
      ],
      [
        "~",
        "columnfamilydata"
      ],
      [
        "~",
        "columnfamilyset"
      ],
      [
        "st",
        "o"
      ],
      [
        "on",
        "add"
      ],
      [
        "le",
        "stats"
      ],
      [
        "con",
        "tents"
      ],
      [
        "read",
        "file"
      ],
      [
        "read",
        "ahead"
      ],
      [
        "can",
        "ce"
      ],
      [
        "new",
        "datablockiter"
      ],
      [
        "and",
        "schedule"
      ],
      [
        "ro",
        "lestats"
      ],
      [
        "_s",
        "_build"
      ],
      [
        "co",
        "m"
      ],
      [
        "write",
        "stringto"
      ],
      [
        "map",
        "key"
      ],
      [
        "build",
        "er<>"
      ],
      [
        "allocate",
        "fall"
      ],
      [
        "put",
        "varint32"
      ],
      [
        "background",
        "work"
      ],
      [
        "factory",
        "<>"
      ],
      [
        "stat",
        "ic"
      ],
      [
        "stats",
        "mapkey"
      ],
      [
        "add",
        "directories"
      ],
      [
        "register",
        "thread"
      ],
      [
        "_node",
        "builder<>"
      ],
      [
        "_m_assign",
        "_"
      ],
      [
        "find",
        "factory<>"
      ],
      [
        "filesystem",
        "wrapper"
      ],
      [
        "filesystem",
        "tracingwrapper"
      ],
      [
        "skiplist",
        "rep"
      ],
      [
        "current",
        "filename"
      ],
      [
        "fs",
        "sequentialfile"
      ],
      [
        "port",
        "uuid"
      ],
      [
        "local",
        "timer"
      ],
      [
        "writestall",
        "statsmapkey"
      ],
      [
        "generate",
        "uniqueid"
      ],
      [
        "temp",
        "filename"
      ],
      [
        "prefetch",
        "tail"
      ],
      [
        "allocatenew",
        "block"
      ],
      [
        "dumpdbstats",
        "writestall"
      ],
      [
        "cacheentry",
        "rolestats"
      ],
      [
        "tablefilename",
        "[abi:cxx11]"
      ],
      [
        "entropy",
        "track"
      ],
      [
        "installsuperversion",
        "andschedule"
      ],
      [
        "basic_if",
        "stream"
      ],
      [
        "basic_if",
        "stream<>"
      ],
      [
        "generaterawuniqueid",
        "impl"
      ],
      [
        "getoptions",
        "map"
      ],
      [
        "instrumentedmutex",
        "lock"
      ],
      [
        "blo",
        "b"
      ],
      [
        "lall",
        "backgroundwork"
      ],
      [
        "readfile",
        "tostring"
      ],
      [
        "readahead",
        "sequentialfile"
      ],
      [
        "cance",
        "lallbackgroundwork"
      ],
      [
        "newdatablockiter",
        "ator<>"
      ],
      [
        "_s_build",
        "<>"
      ],
      [
        "writestringto",
        "file"
      ],
      [
        "allocatefall",
        "back"
      ],
      [
        "static",
        "meta"
      ],
      [
        "writestallstatsmapkey",
        "s"
      ],
      [
        "entropytrack",
        "portuuid"
      ],
      [
        "installsuperversionandschedule",
        "work"
      ],
      [
        "initialize",
        "base"
      ],
      [
        "a",
        "dblock"
      ],
      [
        "c",
        "e<>"
      ],
      [
        "e",
        "le"
      ],
      [
        "f",
        "open  "
      ],
      [
        "m",
        "ents"
      ],
      [
        "o",
        "mp"
      ],
      [
        "o",
        "de"
      ],
      [
        "in",
        "ter"
      ],
      [
        "alloc",
        "aten"
      ],
      [
        "ad",
        "er<>"
      ],
      [
        "fa",
        "ce<>"
      ],
      [
        "file",
        "loc"
      ],
      [
        "new",
        "instance"
      ],
      [
        "and",
        "load"
      ],
      [
        "te",
        "s"
      ],
      [
        "set",
        "dbid"
      ],
      [
        "allocate",
        "impl<>"
      ],
      [
        "allocate",
        "block"
      ],
      [
        "allocate",
        "key"
      ],
      [
        "pr",
        "in"
      ],
      [
        "cache",
        "inter"
      ],
      [
        "optionsfile",
        "s"
      ],
      [
        "delete",
        "file"
      ],
      [
        "ation",
        "index"
      ],
      [
        "ere",
        "adblock"
      ],
      [
        "setc",
        "omp"
      ],
      [
        "_io_",
        "fopen  "
      ],
      [
        "filere",
        "ader<>"
      ],
      [
        "generate",
        "fileloc"
      ],
      [
        "deleteobsolete",
        "optionsfiles"
      ],
      [
        "see",
        "kimpl"
      ],
      [
        "line",
        "filereader<>"
      ],
      [
        "ur",
        "bg"
      ],
      [
        "getoptions",
        "<>"
      ],
      [
        "corelocalarray",
        "<>"
      ],
      [
        "next",
        "impl"
      ],
      [
        "readblock",
        "contents"
      ],
      [
        "mayb",
        "ereadblock"
      ],
      [
        "_m_assign_",
        "ele"
      ],
      [
        "ments",
        "<>"
      ],
      [
        "allocaten",
        "ode"
      ],
      [
        "andload",
        "tocache<>"
      ],
      [
        "cacheinter",
        "face<>"
      ],
      [
        "generatefileloc",
        "ationindex"
      ],
      [
        "maybereadblock",
        "andloadtocache<>"
      ],
      [
        "_m_assign_ele",
        "ments<>"
      ],
      [
        "_",
        "impl"
      ],
      [
        "option",
        "name"
      ],
      [
        "iz",
        "ation"
      ],
      [
        "init",
        "ial"
      ],
      [
        "get",
        "optionname"
      ],
      [
        "wrapper",
        " routine for rocksdb"
      ],
      [
        "for",
        "get"
      ],
      [
        "index",
        "blockiter"
      ],
      [
        "seek",
        "forget"
      ],
      [
        "__cxa_thread_atexit",
        "  "
      ],
      [
        "__cxa_thread_atexit",
        "_impl"
      ],
      [
        "thread-local ",
        "initial"
      ],
      [
        "thread-local ",
        "wrapper routine for rocksdb"
      ],
      [
        "ization",
        " routine for rocksdb"
      ],
      [
        "__cxa_thread_atexit_impl",
        "  "
      ],
      [
        "thread-local initial",
        "ization routine for rocksdb"
      ],
      [
        "_",
        "en"
      ],
      [
        "_",
        "list"
      ],
      [
        "_",
        "head"
      ],
      [
        "a",
        "use"
      ],
      [
        "b",
        "o"
      ],
      [
        "c",
        "32"
      ],
      [
        "c",
        "tcache"
      ],
      [
        "c",
        "ause"
      ],
      [
        "e",
        "path"
      ],
      [
        "f",
        "read"
      ],
      [
        "f",
        "write"
      ],
      [
        "f",
        "oo"
      ],
      [
        "f",
        "ul"
      ],
      [
        "r",
        "error"
      ],
      [
        "t",
        "uple"
      ],
      [
        "~",
        "genericratelimiter"
      ],
      [
        "re",
        "qu"
      ],
      [
        "re",
        "hash"
      ],
      [
        "alloc",
        "node<>"
      ],
      [
        "tion",
        "count"
      ],
      [
        "_st",
        "rerror"
      ],
      [
        "or",
        "allocnode<>"
      ],
      [
        "tc",
        "ur"
      ],
      [
        "ol",
        "ut"
      ],
      [
        "con",
        "di"
      ],
      [
        "ar",
        "ies"
      ],
      [
        "log",
        "to"
      ],
      [
        "invoke",
        "get"
      ],
      [
        "invoke",
        "_strerror"
      ],
      [
        "un",
        "registerdbpaths"
      ],
      [
        "_m_",
        "rang"
      ],
      [
        "wr",
        "and"
      ],
      [
        "read",
        "and"
      ],
      [
        "read",
        "meta"
      ],
      [
        "flush",
        "info"
      ],
      [
        "flush",
        "requ"
      ],
      [
        "ne",
        "wrand"
      ],
      [
        "new",
        "meta"
      ],
      [
        "and",
        "newdirectory"
      ],
      [
        "and",
        "remove"
      ],
      [
        "_internal",
        "_"
      ],
      [
        "columnfamily",
        "descriptor"
      ],
      [
        "tcmallocinternalnew",
        "aligned"
      ],
      [
        "me",
        "tab"
      ],
      [
        "set",
        "directories"
      ],
      [
        "set",
        "dbsessionid"
      ],
      [
        "create",
        "andnewdirectory"
      ],
      [
        "ac",
        "tcur"
      ],
      [
        "write",
        "foo"
      ],
      [
        "e_",
        "initialize"
      ],
      [
        "_p",
        "ut"
      ],
      [
        "_t",
        "uple"
      ],
      [
        "no",
        "str"
      ],
      [
        "cu",
        "late"
      ],
      [
        "und",
        "aries"
      ],
      [
        "parse",
        "state"
      ],
      [
        "parse",
        "blockfromfile"
      ],
      [
        "info",
        "logfilename"
      ],
      [
        "cache",
        "key"
      ],
      [
        "get",
        "shared"
      ],
      [
        "get",
        "abs"
      ],
      [
        "get",
        "dbpaths[abi:cxx11]"
      ],
      [
        "get",
        "flag<>"
      ],
      [
        "pe",
        "er"
      ],
      [
        "optionsfile",
        "name"
      ],
      [
        "mak",
        "est"
      ],
      [
        "add",
        "key"
      ],
      [
        "iter",
        "key"
      ],
      [
        "base",
        "by"
      ],
      [
        "base",
        "cachekey"
      ],
      [
        "for",
        "blockfromfile"
      ],
      [
        "files",
        "by"
      ],
      [
        "str",
        "ip"
      ],
      [
        "posix",
        "rand"
      ],
      [
        "entry",
        "stats"
      ],
      [
        "cal",
        "culate"
      ],
      [
        "merge",
        "helper"
      ],
      [
        "wal",
        "manager"
      ],
      [
        "delete",
        "dbfile"
      ],
      [
        "memtablelist",
        "version"
      ],
      [
        "prepare",
        "buffer"
      ],
      [
        "tablebuilder",
        "options"
      ],
      [
        "sstfile",
        "sto"
      ],
      [
        "colle",
        "ctcache"
      ],
      [
        "hash",
        "_base<>"
      ],
      [
        "mapstats",
        "writestall"
      ],
      [
        "locked",
        "  "
      ],
      [
        "sw",
        "ap"
      ],
      [
        "save",
        "sstfilesto"
      ],
      [
        "dumpdb",
        "mapstatswritestall"
      ],
      [
        "_un",
        "locked  "
      ],
      [
        "_re",
        "hash_base<>"
      ],
      [
        "err",
        "nostr"
      ],
      [
        "cr",
        "c32"
      ],
      [
        "compaction",
        "pri"
      ],
      [
        "collect",
        "stats"
      ],
      [
        "_reuse",
        "orallocnode<>"
      ],
      [
        "schedule",
        "filedeletion"
      ],
      [
        "generate",
        "key"
      ],
      [
        "generate",
        "value"
      ],
      [
        "generate",
        "dbsession"
      ],
      [
        "trim",
        "andremove"
      ],
      [
        "setup",
        "basecachekey"
      ],
      [
        "_io_file_",
        "overflow"
      ],
      [
        "_io_file_",
        "xsputn"
      ],
      [
        "updat",
        "er"
      ],
      [
        "update",
        "filesby"
      ],
      [
        "flagimpl",
        "peer"
      ],
      [
        "kclassname",
        "internal"
      ],
      [
        "threadstatus",
        "updater"
      ],
      [
        "randen",
        "_en"
      ],
      [
        "gin",
        "e<>"
      ],
      [
        "sor",
        "s"
      ],
      [
        "com",
        "ment"
      ],
      [
        "fssequentialfile",
        "ptr"
      ],
      [
        "blob",
        "file"
      ],
      [
        "setcomp",
        "actcur"
      ],
      [
        "_list",
        "_base<>"
      ],
      [
        "_head",
        "_base<>"
      ],
      [
        "bo",
        "undaries"
      ],
      [
        "cause",
        "condi"
      ],
      [
        "fread",
        "_unlocked  "
      ],
      [
        "fwrite",
        "  "
      ],
      [
        "ful",
        "l"
      ],
      [
        "tuple",
        "<>"
      ],
      [
        "tioncount",
        "[abi:cxx11]"
      ],
      [
        "olut",
        "epath"
      ],
      [
        "logto",
        "buffer"
      ],
      [
        "invokeget",
        "<>"
      ],
      [
        "invoke_strerror",
        "_r"
      ],
      [
        "_m_rang",
        "e_initialize"
      ],
      [
        "readand",
        "parseblockfromfile"
      ],
      [
        "readmeta",
        "indexblock"
      ],
      [
        "flushinfo",
        "log"
      ],
      [
        "flushrequ",
        "est"
      ],
      [
        "newrand",
        "omaccessfile"
      ],
      [
        "newmeta",
        "iterator"
      ],
      [
        "tcmallocinternalnewaligned",
        "  "
      ],
      [
        "metab",
        "lockiter"
      ],
      [
        "writefoo",
        "ter"
      ],
      [
        "_tuple",
        "_impl<>"
      ],
      [
        "parsestate",
        "ment"
      ],
      [
        "getabs",
        "olutepath"
      ],
      [
        "makest",
        "ream"
      ],
      [
        "baseby",
        "tes"
      ],
      [
        "posixrand",
        "omaccessfile"
      ],
      [
        "calculate",
        "basebytes"
      ],
      [
        "preparebuffer",
        "forblockfromfile"
      ],
      [
        "collectcache",
        "entrystats"
      ],
      [
        "errnostr",
        "[abi:cxx11]"
      ],
      [
        "generatedbsession",
        "id[abi:cxx11]"
      ],
      [
        "trimandremove",
        "comment"
      ],
      [
        "_io_file_overflow",
        "  "
      ],
      [
        "_io_file_xsputn",
        "  "
      ],
      [
        "updatefilesby",
        "compactionpri"
      ],
      [
        "randen_en",
        "gine<>"
      ],
      [
        "setcompactcur",
        "sors"
      ],
      [
        "causecondi",
        "tioncount[abi:cxx11]"
      ],
      [
        "_m_range_initialize",
        "<>"
      ],
      [
        "readandparseblockfromfile",
        "<>"
      ],
      [
        "1",
        "<>"
      ],
      [
        "_",
        "per"
      ],
      [
        "_",
        "default_n"
      ],
      [
        "_",
        "queue<>"
      ],
      [
        "_",
        "1<>"
      ],
      [
        "a",
        "f"
      ],
      [
        "a",
        "mp"
      ],
      [
        "d",
        "_h"
      ],
      [
        "e",
        "la"
      ],
      [
        "e",
        "cord"
      ],
      [
        "g",
        "g"
      ],
      [
        "i",
        "s"
      ],
      [
        "i",
        "ts"
      ],
      [
        "l",
        "app"
      ],
      [
        "n",
        "um"
      ],
      [
        "o",
        "ok"
      ],
      [
        "s",
        "iter"
      ],
      [
        "s",
        "_or"
      ],
      [
        "t",
        "on"
      ],
      [
        "st",
        "cfoptions"
      ],
      [
        "all",
        "_s"
      ],
      [
        "re",
        "urbg"
      ],
      [
        "le",
        "flush"
      ],
      [
        "le",
        "d_h"
      ],
      [
        "alloc",
        "_sm"
      ],
      [
        "__",
        "basic_file"
      ],
      [
        "options",
        "[abi:cxx11]"
      ],
      [
        "or",
        "compaction"
      ],
      [
        "or",
        "ity"
      ],
      [
        "ter",
        "binary"
      ],
      [
        "table",
        "options[abi:cxx11]"
      ],
      [
        "th",
        "andler"
      ],
      [
        "ct",
        "yp"
      ],
      [
        "ts",
        "ingle"
      ],
      [
        "basi",
        "ctyp"
      ],
      [
        "new",
        "version"
      ],
      [
        "new",
        "genericratelimiter"
      ],
      [
        "se",
        "cu"
      ],
      [
        "se",
        "thandler"
      ],
      [
        "ed",
        "cacheinterface<>"
      ],
      [
        "ed",
        "ela"
      ],
      [
        "and",
        "filter"
      ],
      [
        "ut",
        "il"
      ],
      [
        "create",
        "handle"
      ],
      [
        "create",
        "context"
      ],
      [
        "create",
        "indexbuilder"
      ],
      [
        "create",
        "indexreader"
      ],
      [
        "lock",
        "tocache<>"
      ],
      [
        "block",
        "createcontext"
      ],
      [
        "de",
        "code"
      ],
      [
        "build",
        "columnfamilyoptions"
      ],
      [
        "end",
        "ing"
      ],
      [
        "versioned",
        "its"
      ],
      [
        "init",
        "_default_n"
      ],
      [
        "put",
        "datab"
      ],
      [
        "parse",
        "internalkey"
      ],
      [
        "get",
        "[abi:cxx11]"
      ],
      [
        "get",
        "lin"
      ],
      [
        "get",
        "threadlocal"
      ],
      [
        "get",
        "late"
      ],
      [
        "get",
        "prin"
      ],
      [
        "tr",
        "a"
      ],
      [
        "add",
        "file"
      ],
      [
        "reg",
        "ator"
      ],
      [
        "es",
        "chedu"
      ],
      [
        "_m_allocate",
        "_internal_"
      ],
      [
        "apply",
        "versionedit"
      ],
      [
        "record",
        "allocation"
      ],
      [
        "ini",
        "tsingle"
      ],
      [
        "recovery",
        "context"
      ],
      [
        "find",
        "key"
      ],
      [
        "__un",
        "init_default_n"
      ],
      [
        "install",
        "newversion"
      ],
      [
        "index",
        "andfilter"
      ],
      [
        "_io_",
        "fd"
      ],
      [
        "compaction",
        "rang"
      ],
      [
        "valu",
        "e<>"
      ],
      [
        "over",
        "lapp"
      ],
      [
        "prefetch",
        "indexandfilter"
      ],
      [
        "_m_default_",
        "initialize"
      ],
      [
        "update",
        "versionedits"
      ],
      [
        "__uninitialized_default_n",
        "<>"
      ],
      [
        "__uninitialized_default_n",
        "_a<>"
      ],
      [
        "__uninitialized_default_n",
        "_1<>"
      ],
      [
        "allocation",
        "siter"
      ],
      [
        "mayb",
        "eschedu"
      ],
      [
        "threadstatus",
        "util"
      ],
      [
        "pri",
        "ority"
      ],
      [
        "randen",
        "pool"
      ],
      [
        "dbsessionid",
        "gen"
      ],
      [
        "non",
        "secu"
      ],
      [
        "onadd",
        "file"
      ],
      [
        "onadd",
        "fileimpl"
      ],
      [
        "putvarint32",
        "varint32"
      ],
      [
        "generateuniqueid",
        "[abi:cxx11]"
      ],
      [
        "_put",
        "<>"
      ],
      [
        "_per",
        "thread<>"
      ],
      [
        "af",
        "terbinary"
      ],
      [
        "amp",
        "led_h"
      ],
      [
        "ecord",
        "er"
      ],
      [
        "gg",
        "regator"
      ],
      [
        "num",
        "_put<>"
      ],
      [
        "ook",
        "s_or"
      ],
      [
        "all_s",
        "ampled_h"
      ],
      [
        "leflush",
        "orcompaction"
      ],
      [
        "alloc_sm",
        "all_sampled_h"
      ],
      [
        "__basic_file",
        "<>"
      ],
      [
        "basictyp",
        "edcacheinterface<>"
      ],
      [
        "edela",
        "ggregator"
      ],
      [
        "decode",
        "from"
      ],
      [
        "putdatab",
        "locktocache<>"
      ],
      [
        "getlin",
        "e<>"
      ],
      [
        "getlate",
        "stcfoptions"
      ],
      [
        "getprin",
        "tableoptions[abi:cxx11]"
      ],
      [
        "_m_allocate_internal_",
        "buffer"
      ],
      [
        "initsingle",
        "ton"
      ],
      [
        "findkey",
        "afterbinary"
      ],
      [
        "__uninit_default_n",
        "<>"
      ],
      [
        "_io_fd",
        "open  "
      ],
      [
        "compactionrang",
        "edelaggregator"
      ],
      [
        "overlapp",
        "ing"
      ],
      [
        "prefetchindexandfilter",
        "blocks"
      ],
      [
        "allocationsiter",
        "ecorder"
      ],
      [
        "maybeschedu",
        "leflushorcompaction"
      ],
      [
        "priority",
        "_queue<>"
      ],
      [
        "nonsecu",
        "reurbg"
      ],
      [
        "ooks_or",
        "_perthread<>"
      ],
      [
        "alloc_small_sampled_h",
        "ooks_or_perthread<>"
      ],
      [
        "findkeyafterbinary",
        "seek"
      ],
      [
        "0",
        "file"
      ],
      [
        "_",
        "po"
      ],
      [
        "_",
        "info"
      ],
      [
        "b",
        "it"
      ],
      [
        "c",
        "fl"
      ],
      [
        "c",
        "lock"
      ],
      [
        "d",
        "y"
      ],
      [
        "d",
        "infologfilename"
      ],
      [
        "e",
        "p"
      ],
      [
        "e",
        "impl<>"
      ],
      [
        "e",
        "ader"
      ],
      [
        "g",
        "o"
      ],
      [
        "h",
        "ed"
      ],
      [
        "m",
        "on"
      ],
      [
        "m",
        "ic"
      ],
      [
        "n",
        "ing"
      ],
      [
        "r",
        "at"
      ],
      [
        "r",
        "ocess"
      ],
      [
        "s",
        "la"
      ],
      [
        "s",
        "yst"
      ],
      [
        "s",
        "ort"
      ],
      [
        "s",
        "enext"
      ],
      [
        "t",
        "ok"
      ],
      [
        "~",
        "version"
      ],
      [
        "~",
        "writecontroller"
      ],
      [
        "st",
        "_p"
      ],
      [
        "st",
        "crc32"
      ],
      [
        "on",
        "fi"
      ],
      [
        "on",
        "ly"
      ],
      [
        "on",
        "non"
      ],
      [
        "on",
        "go"
      ],
      [
        "all",
        "columnfamily"
      ],
      [
        "re",
        "flags"
      ],
      [
        "re",
        "sto"
      ],
      [
        "le",
        "tion"
      ],
      [
        "le",
        "ar"
      ],
      [
        "en",
        "sion"
      ],
      [
        "en",
        "queu"
      ],
      [
        "en",
        "lar"
      ],
      [
        "or",
        "un"
      ],
      [
        "tc",
        "onfi"
      ],
      [
        "ol",
        "dinfologfilename"
      ],
      [
        "malloc",
        "ext"
      ],
      [
        "invoke",
        "<>"
      ],
      [
        "un",
        "ref"
      ],
      [
        "sh",
        "eader"
      ],
      [
        "gu",
        "ra"
      ],
      [
        "ing",
        "data"
      ],
      [
        "ing",
        "compaction"
      ],
      [
        "ing",
        "sla"
      ],
      [
        "il",
        "ingsla"
      ],
      [
        "read",
        "indexblock"
      ],
      [
        "read",
        "line"
      ],
      [
        "read",
        "only"
      ],
      [
        "oper",
        "ation"
      ],
      [
        "basic_string",
        "stream<>"
      ],
      [
        "ma",
        "ch"
      ],
      [
        "fa",
        "stcrc32"
      ],
      [
        "file",
        "by"
      ],
      [
        "file",
        "boundaries"
      ],
      [
        "new",
        "readaheadsequentialfile"
      ],
      [
        "se",
        "ed<>"
      ],
      [
        "ed",
        "[abi:cxx11]"
      ],
      [
        "and",
        "ref"
      ],
      [
        "par",
        "senext"
      ],
      [
        "ist",
        "ingdata"
      ],
      [
        "lock",
        "filename"
      ],
      [
        "e_",
        "aux"
      ],
      [
        "de",
        "lim"
      ],
      [
        "ge",
        "buffer"
      ],
      [
        "memtable",
        "sor"
      ],
      [
        "ith",
        "ongo"
      ],
      [
        "cf",
        "operation"
      ],
      [
        "parse",
        "section"
      ],
      [
        "cac",
        "hed"
      ],
      [
        "call",
        "back"
      ],
      [
        "call",
        "onc"
      ],
      [
        "get",
        "instance"
      ],
      [
        "get",
        "_po"
      ],
      [
        "get",
        "allcolumnfamily"
      ],
      [
        "get",
        "mach"
      ],
      [
        "get",
        "andref"
      ],
      [
        "get",
        "delim"
      ],
      [
        "stat",
        "sheader"
      ],
      [
        "ex",
        "istingdata"
      ],
      [
        "na",
        "mic"
      ],
      [
        "insert",
        "full"
      ],
      [
        "count",
        "lim"
      ],
      [
        "base",
        "_internal"
      ],
      [
        "level",
        "statsheader"
      ],
      [
        "sp",
        "atch"
      ],
      [
        "flag",
        "value<>"
      ],
      [
        "so",
        "ur"
      ],
      [
        "manifest",
        "writer"
      ],
      [
        "operator=",
        "<>"
      ],
      [
        "_m_insert_",
        "int"
      ],
      [
        "em",
        "clock"
      ],
      [
        "di",
        "spatch"
      ],
      [
        "comp",
        "letion"
      ],
      [
        "tablereader",
        "options"
      ],
      [
        "lac",
        "e_aux"
      ],
      [
        "obsolete",
        "fileinfo"
      ],
      [
        "be",
        "gin"
      ],
      [
        "key",
        "<>"
      ],
      [
        "colle",
        "ction"
      ],
      [
        "_m_rep",
        "lace_aux"
      ],
      [
        "dumpcf",
        "filehistogram"
      ],
      [
        "fswritablefile",
        "tracingwrapper"
      ],
      [
        "sw",
        "ithongo"
      ],
      [
        "site",
        "stats"
      ],
      [
        "print",
        "levelstatsheader"
      ],
      [
        "ine",
        "lear"
      ],
      [
        "support",
        "ed[abi:cxx11]"
      ],
      [
        "rand",
        "omaccess"
      ],
      [
        "temp",
        "optionsfilename"
      ],
      [
        "seed",
        "seq"
      ],
      [
        "typed",
        "cacheinterface<>"
      ],
      [
        "mapp",
        "end"
      ],
      [
        "unrefandtry",
        "remove"
      ],
      [
        "encode",
        "fileboundaries"
      ],
      [
        "track",
        "files"
      ],
      [
        "track",
        "orun"
      ],
      [
        "track",
        "existingdata"
      ],
      [
        "varint",
        "64"
      ],
      [
        "indexreader",
        "com"
      ],
      [
        "remove",
        "tra"
      ],
      [
        "remove",
        "memtablesor"
      ],
      [
        "next",
        "tok"
      ],
      [
        "tri",
        "mappend"
      ],
      [
        "update",
        "boundaries"
      ],
      [
        "blo",
        "om"
      ],
      [
        "allocation",
        "sitestats"
      ],
      [
        "cleanup",
        "directory"
      ],
      [
        "fssequentialfile",
        "tracingwrapper"
      ],
      [
        "blob",
        "sour"
      ],
      [
        "prin",
        "tconfi"
      ],
      [
        "strip",
        "ed"
      ],
      [
        "strip",
        "ed<>"
      ],
      [
        "savesstfilesto",
        "<>"
      ],
      [
        "crc32",
        "c"
      ],
      [
        "blobfile",
        "cache"
      ],
      [
        "blobfile",
        "completion"
      ],
      [
        "full",
        "typedcacheinterface<>"
      ],
      [
        "is",
        "fastcrc32"
      ],
      [
        "ending",
        "flush"
      ],
      [
        "getthreadlocal",
        "superversion"
      ],
      [
        "randenpool",
        "seedseq"
      ],
      [
        "overlapping",
        "rat"
      ],
      [
        "nonsecureurbg",
        "base<>"
      ],
      [
        "0file",
        "countlim"
      ],
      [
        "bit",
        "gen"
      ],
      [
        "cfl",
        "0filecountlim"
      ],
      [
        "dy",
        "namic"
      ],
      [
        "ep",
        "endingflush"
      ],
      [
        "ning",
        "allocationsitestats"
      ],
      [
        "rocess",
        "_info"
      ],
      [
        "syst",
        "emclock"
      ],
      [
        "sort",
        "fileby"
      ],
      [
        "st_p",
        "rocess_info"
      ],
      [
        "onnon",
        "cfoperation"
      ],
      [
        "resto",
        "reflags"
      ],
      [
        "enqueu",
        "ependingflush"
      ],
      [
        "enlar",
        "gebuffer"
      ],
      [
        "mallocext",
        "ension"
      ],
      [
        "gura",
        "tion"
      ],
      [
        "ingcompaction",
        "[abi:cxx11]"
      ],
      [
        "ilingsla",
        "sh"
      ],
      [
        "readonly",
        "memtable"
      ],
      [
        "parsenext",
        "key<>"
      ],
      [
        "cached",
        "logicalblocksize"
      ],
      [
        "callonc",
        "eimpl<>"
      ],
      [
        "get_po",
        "st_process_info"
      ],
      [
        "getallcolumnfamily",
        "metadata"
      ],
      [
        "getmach",
        "inelear"
      ],
      [
        "getandref",
        "superversion"
      ],
      [
        "getdelim",
        "  "
      ],
      [
        "_m_insert_int",
        "<>"
      ],
      [
        "dispatch",
        "<>"
      ],
      [
        "begin",
        "collection"
      ],
      [
        "swithongo",
        "ingcompaction[abi:cxx11]"
      ],
      [
        "randomaccess",
        "filereader"
      ],
      [
        "unrefandtryremove",
        "cachedlogicalblocksize"
      ],
      [
        "trackorun",
        "trackfiles"
      ],
      [
        "trackexistingdata",
        "files"
      ],
      [
        "indexreadercom",
        "mon"
      ],
      [
        "removetra",
        "ilingslash"
      ],
      [
        "removememtablesor",
        "restoreflags"
      ],
      [
        "nexttok",
        "en"
      ],
      [
        "blobsour",
        "ce"
      ],
      [
        "printconfi",
        "guration"
      ],
      [
        "blobfilecompletion",
        "callback"
      ],
      [
        "isfastcrc32",
        "supported[abi:cxx11]"
      ],
      [
        "overlappingrat",
        "io"
      ],
      [
        "cfl0filecountlim",
        "it"
      ],
      [
        "dynamic",
        "bloom"
      ],
      [
        "sortfileby",
        "overlappingratio"
      ],
      [
        "getmachinelear",
        "ningallocationsitestats"
      ],
      [
        "_",
        "dispatch<>"
      ],
      [
        "c",
        "or"
      ],
      [
        "d",
        "add"
      ],
      [
        "f",
        "r"
      ],
      [
        "h",
        "ost"
      ],
      [
        "i",
        "db"
      ],
      [
        "i",
        "ate"
      ],
      [
        "i",
        "se"
      ],
      [
        "i",
        "te"
      ],
      [
        "i",
        "val"
      ],
      [
        "k",
        "buffer"
      ],
      [
        "m",
        "ed"
      ],
      [
        "n",
        "record"
      ],
      [
        "o",
        "ut"
      ],
      [
        "o",
        "utput"
      ],
      [
        "p",
        "  "
      ],
      [
        "p",
        "tion"
      ],
      [
        "r",
        "st"
      ],
      [
        "s",
        "<>"
      ],
      [
        "s",
        "ize"
      ],
      [
        "t",
        "ure"
      ],
      [
        "v",
        "ed"
      ],
      [
        "w",
        "ise"
      ],
      [
        "w",
        "nrecord"
      ],
      [
        "y",
        "tes"
      ],
      [
        "y",
        "swithongoingcompaction[abi:cxx11]"
      ],
      [
        "db",
        "_p"
      ],
      [
        "db",
        "host"
      ],
      [
        "rocks",
        "build"
      ],
      [
        "st",
        "op"
      ],
      [
        "st",
        "internalkey"
      ],
      [
        "st",
        "ostring"
      ],
      [
        "er",
        "flow"
      ],
      [
        "er",
        "atexit"
      ],
      [
        "er",
        "dadd"
      ],
      [
        "on",
        "t"
      ],
      [
        "op",
        "s<>"
      ],
      [
        "all",
        "entr"
      ],
      [
        "re",
        "ify"
      ],
      [
        "re",
        "seed<>"
      ],
      [
        "alloc",
        "ator"
      ],
      [
        "at",
        "h"
      ],
      [
        "option",
        "stostring"
      ],
      [
        "fi",
        "rst"
      ],
      [
        "_st",
        "ring"
      ],
      [
        "or",
        "te"
      ],
      [
        "sh",
        "ut"
      ],
      [
        "sh",
        "orte"
      ],
      [
        "ct",
        "info"
      ],
      [
        "read",
        "mo"
      ],
      [
        "read",
        "record"
      ],
      [
        "read",
        "physicalrecord"
      ],
      [
        "read",
        "into"
      ],
      [
        "new",
        "data"
      ],
      [
        "new",
        "flushblockpolicy"
      ],
      [
        "new",
        "superversion"
      ],
      [
        "se",
        "par"
      ],
      [
        "ed",
        "files"
      ],
      [
        "he",
        "ap"
      ],
      [
        "li",
        "ve"
      ],
      [
        "te",
        "wise"
      ],
      [
        "ru",
        "ption"
      ],
      [
        "from",
        "table"
      ],
      [
[...]
